[PAD]
[unused1]
[unused2]
[unused3]
[unused4]
[unused5]
[unused6]
[unused7]
[unused8]
[unused9]
[unused10]
[unused11]
[unused12]
[unused13]
[unused14]
[unused15]
[unused16]
[unused17]
[unused18]
[unused19]
[unused20]
[unused21]
[unused22]
[unused23]
[unused24]
[unused25]
[unused26]
[unused27]
[unused28]
[unused29]
[unused30]
[unused31]
[unused32]
[unused33]
[unused34]
[unused35]
[unused36]
[unused37]
[unused38]
[unused39]
[unused40]
[unused41]
[unused42]
[unused43]
[unused44]
[unused45]
[unused46]
[unused47]
[unused48]
[unused49]
[unused50]
[unused51]
[unused52]
[unused53]
[unused54]
[unused55]
[unused56]
[unused57]
[unused58]
[unused59]
[unused60]
[unused61]
[unused62]
[unused63]
[unused64]
[unused65]
[unused66]
[unused67]
[unused68]
[unused69]
[unused70]
[unused71]
[unused72]
[unused73]
[unused74]
[unused75]
[unused76]
[unused77]
[unused78]
[unused79]
[unused80]
[unused81]
[unused82]
[unused83]
[unused84]
[unused85]
[unused86]
[unused87]
[unused88]
[unused89]
[unused90]
[unused91]
[unused92]
[unused93]
[unused94]
[unused95]
[unused96]
[unused97]
[unused98]
[unused99]
[UNK]
[CLS]
[SEP]
[MASK]
!
"
#
##
##0
##00
##000
##0000
##001
##01
##018
##019
##02
##03
##04
##05
##06
##07
##08
##09
##1
##10
##100
##11
##12
##120
##123
##13
##14
##15
##150
##16
##168
##17
##18
##19
##1M
##2
##20
##200
##2000
##2010
##2011
##2012
##2017
##2018
##2019
##21
##22
##23
##24
##25
##26
##27
##28
##29
##3
##30
##300
##304
##31
##32
##33
##34
##35
##36
##360
##365
##37
##38
##39
##4
##40
##400
##41
##42
##43
##44
##45
##46
##47
##48
##480
##49
##5
##50
##500
##51
##52
##53
##54
##55
##56
##57
##58
##59
##5m
##6
##60
##600
##61
##62
##63
##64
##65
##66
##67
##68
##69
##7
##70
##700
##71
##72
##720
##73
##74
##75
##76
##77
##777
##78
##79
##8
##80
##800
##81
##82
##83
##84
##85
##86
##87
##88
##888
##89
##9
##90
##900
##91
##92
##93
##94
##95
##96
##97
##98
##99
##A
##A1
##A2
##AA
##AB
##AC
##ACE
##ACT
##AD
##ADE
##AE
##AF
##AG
##AGE
##AH
##AI
##AK
##AL
##ALL
##ALO
##AM
##AN
##ANA
##ANCE
##ANE
##AO
##AP
##AR
##ARA
##ARD
##ARI
##ART
##AS
##ASA
##ASE
##AST
##AT
##ATA
##AU
##AV
##AW
##AWA
##AX
##AY
##AZ
##Ag
##App
##Art
##As
##Az
##B
##B1
##BA
##BALL
##BAR
##BAS
##BASE
##BB
##BC
##BD
##BE
##BER
##BG
##BI
##BL
##BLE
##BM
##BN
##BO
##BOX
##BP
##BR
##BRA
##BS
##BT
##BU
##BY
##Bank
##Base
##Blue
##Book
##Box
##Bİ
##C
##C1
##CA
##CAD
##CAM
##CAR
##CAS
##CAT
##CC
##CD
##CE
##CER
##CG
##CH
##CHA
##CI
##CIA
##CIO
##CIÓN
##CK
##CL
##CM
##CN
##CO
##COM
##CON
##CP
##CS
##CT
##CU
##Car
##Card
##Care
##City
##Cl
##Co
##Com
##Con
##Craft
##D
##DA
##DAN
##DAP
##DAY
##DB
##DC
##DD
##DE
##DEN
##DER
##DES
##DF
##DG
##DH
##DI
##DIN
##DK
##DL
##DM
##DN
##DNA
##DO
##DOM
##DOS
##DOW
##DP
##DR
##DRA
##DS
##DT
##DU
##DV
##DY
##Daniel
##De
##Dr
##E
##EA
##EAD
##EB
##EC
##ECE
##ECT
##ED
##EE
##EF
##EG
##EI
##EK
##EL
##ELE
##EM
##EN
##END
##ENE
##ENT
##EO
##EP
##ER
##ERA
##ERN
##ERS
##ERT
##ES
##ESA
##ESS
##EST
##ET
##ETT
##EU
##EUR
##EV
##EVA
##EW
##EX
##EY
##EZ
##Ed
##Es
##Ex
##Express
##Eye
##F
##FA
##FAX
##FC
##FE
##FF
##FI
##FL
##FM
##FO
##FP
##FR
##FS
##FT
##FTA
##FX
##Farlane
##Fi
##G
##GA
##GAT
##GB
##GC
##GD
##GE
##GEN
##GER
##GG
##GH
##GHT
##GHz
##GI
##GL
##GM
##GN
##GO
##GON
##GP
##GS
##GT
##GU
##Gen
##Go
##Google
##Gram
##H
##HA
##HAL
##HAM
##HAN
##HC
##HD
##HE
##HER
##HH
##HI
##HL
##HM
##HN
##HO
##HP
##HQ
##HR
##HS
##HT
##HU
##HZ
##Ho
##Hz
##I
##IA
##IAN
##IB
##IC
##ICA
##ICE
##ICO
##ID
##IDE
##IE
##IF
##IG
##IH
##II
##III
##IK
##IL
##ILI
##IM
##IMO
##IN
##INA
##INE
##ING
##INS
##INT
##IO
##ION
##IONE
##IOS
##IP
##IR
##IRA
##IRO
##IS
##ISA
##ISI
##ISS
##IST
##ISTA
##IT
##ITO
##IU
##IV
##IX
##IZ
##In
##Innen
##IÓN
##J
##JA
##JI
##JK
##JN
##JO
##JS
##JU
##Jet
##Jo
##K
##KA
##KAN
##KB
##KD
##KE
##KG
##KH
##KI
##KK
##KL
##KM
##KO
##KP
##KS
##KT
##KU
##KW
##KY
##Kr
##Kİ
##L
##LA
##LAN
##LANG
##LAR
##LB
##LC
##LD
##LE
##LED
##LER
##LES
##LF
##LG
##LI
##LIK
##LIN
##LINE
##LK
##LL
##LLA
##LLI
##LM
##LO
##LP
##LS
##LT
##LU
##LUS
##LV
##LY
##La
##Lab
##Life
##Line
##Link
##Live
##Lİ
##M
##MA
##MAN
##MAS
##MAT
##MB
##MC
##MD
##ME
##MEN
##MENT
##MER
##MET
##MG
##MH
##MHz
##MI
##MIT
##ML
##MM
##MO
##MON
##MOS
##MP
##MR
##MS
##MT
##MU
##MV
##MW
##Ma
##Mai
##Man
##Mark
##Mbps
##Me
##Media
##Michael
##Mo
##Music
##N
##NA
##NAS
##NB
##NC
##NCE
##ND
##NDA
##NDO
##NE
##NER
##NES
##NESS
##NET
##NG
##NH
##NI
##NIK
##NIS
##NK
##NL
##NM
##NN
##NO
##NOR
##NP
##NS
##NT
##NTA
##NTE
##NTS
##NU
##NY
##Neil
##Net
##New
##News
##No
##Now
##Nİ
##O
##O2
##OA
##OB
##OC
##OD
##OE
##OF
##OG
##OH
##OK
##OL
##OM
##OMA
##OME
##ON
##ONA
##ONE
##OO
##OP
##OPS
##OR
##ORA
##ORD
##ORY
##OS
##OT
##OU
##OV
##OVA
##OW
##On
##One
##Os
##P
##PA
##PAD
##PAL
##PAN
##PAS
##PB
##PC
##PD
##PE
##PER
##PF
##PG
##PH
##PI
##PJ
##PK
##PL
##PM
##PN
##PO
##POS
##PP
##PR
##PS
##PT
##PU
##Pa
##Pad
##Pass
##Paul
##Phone
##Play
##Plus
##Pod
##Port
##Power
##Pro
##Ps
##Q
##QA
##QL
##QUE
##Quest
##R
##R2
##RA
##RAM
##RAN
##RAS
##RAT
##RB
##RC
##RD
##RE
##REA
##RES
##RF
##RG
##RI
##RIA
##RIC
##RIO
##RIS
##RK
##RL
##RM
##RN
##RNA
##RO
##RON
##ROS
##RP
##RR
##RS
##RT
##RU
##RWA
##RY
##S
##SA
##SAT
##SB
##SC
##SCO
##SD
##SE
##SH
##SI
##SIM
##SK
##SL
##SM
##SN
##SO
##SO4
##SON
##SP
##SQL
##SR
##SS
##ST
##STA
##STE
##STER
##STO
##SU
##SV
##SY
##San
##Sat
##Scan
##Script
##See
##Share
##Show
##Spot
##St
##Star
##Station
##T
##T1
##TA
##TAK
##TAN
##TAR
##TAS
##TB
##TC
##TD
##TE
##TEC
##TEL
##TER
##TES
##TF
##TH
##TI
##TIN
##TION
##TK
##TL
##TLE
##TM
##TN
##TO
##TOR
##TP
##TR
##TRA
##TRO
##TS
##TT
##TU
##TV
##TY
##Talk
##TeX
##Tech
##The
##Ti
##Time
##To
##Trans
##Tube
##Type
##TÜ
##U
##UA
##UB
##UC
##UD
##UE
##UG
##UH
##UI
##UK
##UL
##UM
##UN
##UND
##UP
##UR
##URA
##URE
##US
##USA
##USD
##USE
##UST
##UT
##UTA
##UU
##UX
##UZ
##V
##V1
##VA
##VAL
##VB
##VC
##VD
##VE
##VER
##VES
##VI
##VII
##VIII
##VIS
##VL
##VM
##VO
##VOR
##VP
##VR
##VS
##VT
##VU
##Vision
##W
##WA
##WAY
##WB
##WD
##WE
##WER
##WH
##WI
##WIN
##WL
##WN
##WO
##WR
##WS
##WU
##Ware
##Web
##West
##Windows
##Wire
##Works
##World
##X
##XA
##XC
##XI
##XL
##XP
##XS
##XT
##XX
##Y
##YA
##YE
##YG
##YI
##YL
##YM
##YO
##YS
##YU
##You
##Z
##ZA
##ZE
##ZEL
##ZER
##ZI
##ZN
##ZO
##ZR
##ZU
##ZY
##ZZ
##a
##aa
##aad
##aag
##aak
##aakt
##aal
##aala
##aald
##aalse
##aam
##aan
##aand
##aang
##aanta
##aap
##aar
##aard
##aare
##aari
##aars
##aas
##aat
##ab
##aba
##abad
##aban
##abar
##abat
##abb
##abe
##abel
##abend
##abh
##abi
##abil
##abile
##abilecek
##abileceği
##abilen
##abili
##abilir
##ability
##abilmek
##abka
##able
##ables
##ablon
##ably
##abo
##about
##abr
##abra
##abs
##abschluss
##abta
##abu
##aby
##ac
##aca
##acak
##acaktır
##acağı
##acağını
##acchi
##accia
##acco
##ace
##aceae
##aces
##ach
##acha
##achan
##ache
##ached
##acher
##achi
##achment
##acho
##acht
##achta
##achte
##achten
##achtet
##achtig
##achtige
##achu
##aci
##acia
##acial
##acie
##acin
##acio
##acion
##acional
##aciones
##ación
##acja
##acje
##acji
##acją
##ację
##ack
##acle
##aco
##acre
##acs
##act
##actie
##action
##active
##activity
##actor
##acu
##acy
##acyjne
##acyjny
##ad
##ada
##adada
##adal
##adamente
##adan
##adania
##adar
##adas
##aday
##add
##ade
##aded
##adel
##aden
##ader
##ades
##adh
##adi
##adia
##adid
##adil
##adim
##adin
##adina
##adine
##ading
##adio
##adir
##adis
##adka
##adku
##adle
##adna
##adne
##adni
##adno
##ado
##adol
##adon
##ador
##adora
##adores
##ados
##adres
##adresse
##ads
##adt
##adu
##adura
##ady
##adza
##adzone
##adí
##adó
##ae
##aea
##ael
##aen
##aeological
##aer
##aet
##af
##afa
##afe
##aff
##affe
##affu
##afi
##afo
##afstand
##aft
##after
##afu
##afy
##ag
##aga
##agal
##agan
##agar
##agat
##agati
##agation
##agbare
##age
##agem
##agement
##agen
##agens
##ager
##ages
##aggio
##agh
##aghan
##agi
##aging
##agit
##aglia
##agna
##agne
##ago
##agon
##agos
##agra
##agram
##ags
##agt
##agu
##agé
##ah
##aha
##ahan
##ahe
##ahi
##ahir
##ahiya
##ahl
##ahla
##ahlen
##ahne
##aho
##ahu
##ahy
##ai
##aia
##aian
##aib
##aic
##aich
##aid
##aida
##aie
##aient
##aig
##aik
##aiko
##ail
##aile
##aili
##ailing
##aille
##ails
##aim
##ain
##aina
##aine
##ained
##aini
##ains
##aint
##aio
##aiono
##aip
##air
##aire
##aires
##airi
##ais
##aise
##ait
##aita
##aite
##aive
##aj
##aja
##ajal
##ajar
##aje
##ajes
##aji
##ajka
##ajmu
##ajn
##ajna
##ajne
##ajni
##ajo
##ajos
##ajt
##aju
##ají
##ają
##ając
##ające
##ający
##ających
##ak
##aka
##akar
##akat
##ake
##akel
##aken
##aker
##aki
##akin
##akk
##akkar
##akke
##akken
##ako
##akom
##akos
##akov
##aks
##akse
##aksi
##akt
##aktan
##akte
##akti
##aktif
##aktion
##aktionen
##aktiv
##aktive
##aku
##aky
##aków
##al
##ala
##alach
##alad
##alada
##alai
##alak
##alam
##alan
##aland
##alani
##alar
##alari
##aları
##alas
##alat
##alau
##alb
##alba
##album
##ald
##alda
##alde
##aldi
##aldo
##ale
##alele
##alem
##alen
##aleni
##alent
##aler
##ales
##alet
##alf
##algic
##alhe
##ali
##alia
##alica
##alid
##alie
##alii
##alik
##alim
##alin
##aline
##aling
##alis
##alisa
##alise
##alista
##alit
##alita
##alite
##aliteit
##ality
##aliza
##alk
##alka
##all
##alla
##allas
##alle
##allen
##aller
##alli
##allo
##alls
##ally
##alma
##almente
##alna
##alne
##alni
##alnie
##alno
##alny
##alnych
##alną
##alo
##alog
##alogie
##alogy
##alom
##alon
##alone
##aloni
##alous
##als
##alse
##alt
##alta
##alte
##alten
##alter
##alti
##alto
##altung
##altı
##alu
##alue
##alus
##aly
##alá
##alı
##alım
##am
##ama
##amach
##amad
##amada
##amak
##amal
##aman
##amar
##amas
##amat
##amay
##amaz
##amba
##ambe
##ambi
##ambiental
##ambo
##ambula
##amd
##ame
##amen
##ament
##amental
##amente
##amenti
##amento
##amentos
##amer
##americana
##americano
##americanos
##amerika
##ames
##amet
##amh
##ami
##amia
##amid
##amide
##amie
##amiento
##amin
##amina
##amine
##aming
##amit
##amma
##ammad
##amme
##ammen
##ammin
##amo
##amon
##amor
##amos
##amot
##amp
##ampon
##ams
##amt
##amu
##amus
##amy
##américa
##an
##ana
##anach
##anada
##anah
##anais
##anak
##anal
##analyse
##anam
##anan
##anar
##anas
##anat
##anata
##anati
##anberries
##anbieter
##anc
##anca
##ance
##ances
##anche
##anci
##ancia
##ancier
##ancio
##anco
##ancy
##and
##anda
##andan
##andar
##ande
##andel
##andeling
##anden
##ander
##andi
##andin
##andina
##ando
##andre
##andro
##andry
##andu
##anduva
##ane
##anei
##anej
##anek
##anel
##anele
##anen
##aner
##anes
##ang
##anga
##angaben
##ange
##angebot
##angebote
##anger
##angi
##ango
##ani
##ania
##anic
##anica
##anie
##aniem
##anii
##anik
##anika
##anim
##anin
##anina
##aning
##anio
##anis
##anisha
##anism
##aniu
##aniza
##anja
##anje
##ank
##anka
##anke
##anken
##ankha
##anki
##anku
##anlage
##anlagen
##anlar
##anları
##anleg
##anlı
##anma
##ann
##anna
##anne
##annen
##annes
##anno
##ano
##anom
##anon
##anor
##anos
##anou
##anov
##ans
##ansa
##anse
##ansen
##ansi
##ansió
##ant
##anta
##antan
##antas
##ante
##anten
##anter
##antes
##anti
##antin
##anto
##antou
##ants
##antu
##anu
##anum
##anun
##anus
##anwa
##any
##anya
##anych
##anym
##anz
##anza
##anze
##anzeigen
##anzi
##anzo
##aná
##ança
##ané
##anê
##aní
##anî
##aną
##anı
##anılan
##anın
##anır
##ao
##aon
##ap
##apa
##apan
##apat
##ape
##apen
##api
##apka
##apo
##app
##aps
##apt
##apta
##apu
##aq
##aque
##aqué
##ar
##ara
##araa
##arach
##aración
##arada
##arado
##arak
##aram
##aran
##arap
##arar
##arare
##aras
##arat
##arate
##aration
##aratu
##arbeid
##arbeit
##arbeiten
##arc
##arca
##arch
##ard
##arda
##ardan
##arde
##arden
##arder
##ardi
##ardia
##ardige
##ardo
##ards
##are
##area
##areg
##arek
##arela
##aren
##arer
##ares
##aret
##arf
##arg
##arga
##arge
##argi
##arh
##ari
##aria
##arias
##arida
##arie
##aries
##arii
##arin
##arina
##arine
##aring
##arins
##ario
##arios
##aris
##arisi
##arit
##arita
##ariti
##arity
##arité
##arium
##arius
##ark
##arka
##arke
##arken
##arki
##arko
##arkę
##arlar
##arli
##arlık
##arm
##arma
##arme
##armen
##arms
##arn
##arna
##arne
##arni
##arno
##arną
##aro
##aron
##aros
##around
##arpa
##arr
##arra
##arre
##arren
##arri
##arry
##ars
##arsa
##arse
##arsi
##arski
##arst
##art
##arta
##artan
##arte
##arten
##arter
##arth
##arti
##arties
##artige
##artikel
##artilhamento
##artir
##arto
##arts
##artu
##arty
##aru
##arum
##arus
##ary
##arya
##aryo
##arz
##arza
##arzt
##ará
##aré
##arî
##arą
##arı
##arın
##arına
##arını
##arının
##as
##asa
##asad
##asada
##asado
##asan
##asar
##asas
##asat
##asc
##asca
##asd
##ase
##ased
##asel
##ases
##ash
##ashi
##asi
##asia
##asie
##asien
##asim
##asin
##asis
##asjes
##aska
##asna
##asne
##asno
##aso
##ason
##ass
##assa
##asse
##assen
##assionato
##assung
##ast
##asta
##aste
##aster
##asti
##asto
##astu
##asu
##asy
##asyon
##asz
##ası
##at
##ata
##atada
##atak
##atal
##atan
##atar
##atas
##ate
##atea
##ated
##atek
##atel
##atem
##aten
##ater
##atera
##ates
##ateur
##ateurs
##atge
##ath
##athan
##athe
##athi
##ati
##atia
##atibilidade
##atibilité
##atic
##atica
##atich
##atie
##aties
##atif
##atik
##atika
##atin
##atina
##ating
##atio
##ation
##ationen
##ations
##atique
##atis
##atisch
##atische
##atit
##atite
##atitis
##ativ
##ativa
##ative
##atives
##ativi
##ativo
##atjes
##atka
##atkan
##atki
##atlan
##atlar
##atları
##atli
##atlı
##atma
##atni
##ato
##atoire
##atole
##aton
##ator
##atora
##atore
##atori
##ators
##atos
##atr
##atra
##atre
##atri
##atria
##atric
##atrice
##ats
##atse
##atsi
##atso
##atsu
##att
##atta
##atte
##atten
##atter
##attes
##atti
##attiv
##attivi
##atto
##attu
##atu
##atua
##atum
##atur
##atura
##ature
##atures
##aturi
##atus
##atuur
##aty
##atz
##atzen
##atè
##atí
##ató
##atório
##atör
##atı
##atın
##au
##aub
##aud
##audi
##auer
##aug
##auli
##ault
##aum
##aun
##aunlich
##aur
##aura
##auri
##auro
##auru
##aus
##ausstattung
##aut
##auti
##auto
##automat
##automaten
##auv
##aux
##av
##ava
##avad
##avan
##avat
##avate
##avati
##ave
##aver
##aves
##avi
##avia
##avin
##aving
##avio
##avo
##avond
##avos
##avour
##avu
##avy
##avé
##avüz
##aw
##awa
##awan
##awana
##awane
##awat
##away
##awać
##awca
##awcy
##awców
##awe
##awi
##awia
##awl
##awn
##awo
##aws
##ax
##axa
##axe
##ay
##aya
##ayan
##ayar
##ayd
##aye
##ayi
##ayn
##ayo
##ayos
##ays
##ayu
##ayı
##az
##aza
##azar
##aze
##azen
##azi
##azing
##azio
##azione
##azioni
##azo
##azu
##azuje
##azy
##azzi
##azzo
##aç
##aça
##aço
##ação
##ações
##aí
##añ
##aña
##ać
##ağa
##ağı
##ał
##ała
##ałam
##ałem
##ało
##ału
##ały
##aş
##aşan
##aşma
##aż
##b
##ba
##baa
##baai
##baan
##baar
##baarheid
##bab
##baba
##baby
##bac
##baca
##bach
##baci
##bacio
##back
##backs
##bacterium
##bad
##bada
##badan
##badi
##bado
##bados
##bae
##bag
##bage
##bah
##baha
##bahar
##bahn
##bai
##baid
##bain
##bair
##bais
##bait
##baixador
##baixo
##baj
##bajada
##bajador
##bajadores
##baje
##bajo
##bak
##baka
##bakan
##baki
##bakke
##bakken
##bal
##bala
##balado
##balar
##balas
##bale
##bali
##ball
##balls
##balo
##bam
##bamba
##bami
##bamos
##ban
##bana
##band
##banda
##bando
##bane
##banen
##bang
##bange
##bani
##banj
##bank
##banken
##bano
##bant
##bao
##bap
##bar
##bara
##baran
##bare
##barek
##baren
##barer
##bares
##bari
##baring
##bark
##barkeit
##barn
##baro
##barque
##barra
##bars
##bart
##barta
##barung
##bas
##basa
##basan
##base
##basis
##bass
##basyon
##bat
##bata
##batch
##bate
##bati
##bato
##batu
##bau
##bauche
##baud
##bauen
##bauer
##baum
##baut
##bava
##baw
##bawa
##bawi
##bawienia
##bay
##baya
##baye
##baz
##baza
##baze
##bazi
##bazo
##baş
##başı
##başına
##bb
##bba
##bban
##bbar
##bbat
##bbe
##bben
##bber
##bbi
##bble
##bbling
##bbs
##bby
##bc
##bce
##bd
##bda
##bdi
##be
##bea
##beam
##bean
##beat
##beau
##beba
##bec
##beck
##becken
##bed
##beda
##bedarf
##bedingungen
##bedrag
##bedrijf
##bedrijven
##bee
##beek
##beeld
##been
##beet
##beginn
##begriff
##beh
##beheer
##behörden
##bei
##beid
##bein
##beiten
##beiter
##beitrag
##bej
##bek
##beka
##bekannt
##bekannte
##bekannten
##beke
##bekende
##beker
##bekleidung
##beko
##beks
##bel
##bela
##belasting
##bele
##beleid
##belen
##beles
##beli
##bell
##bella
##belle
##bellen
##belli
##bello
##bellum
##belo
##bels
##belt
##bem
##ben
##bena
##bench
##bend
##bende
##bender
##bene
##benen
##beng
##beni
##beno
##bens
##bent
##benze
##benzi
##beo
##beperkt
##ber
##bera
##beran
##berate
##berater
##beratung
##bere
##bered
##bereich
##bereit
##bereiten
##beren
##berg
##berga
##bergen
##berger
##bergi
##bergs
##beri
##bericht
##berichte
##berichten
##berie
##bern
##bero
##berri
##berries
##berry
##bers
##bert
##berti
##beru
##bery
##bes
##bescherming
##beschreibung
##bese
##besi
##best
##besta
##bestand
##beste
##bestuur
##bestätigung
##bet
##beta
##betaal
##betaling
##bete
##betes
##betet
##beth
##beti
##beto
##betrag
##betreiber
##betrieb
##bett
##betten
##beu
##beurt
##beveling
##bey
##beya
##bezi
##bf
##bh
##bha
##bham
##bhan
##bhar
##bhe
##bho
##bhu
##bi
##bia
##biają
##bial
##bian
##biar
##bias
##biać
##bib
##bibliothek
##bic
##bica
##bice
##bici
##bico
##bid
##bida
##bidas
##bidden
##bide
##bidi
##bido
##bie
##bied
##biega
##bien
##bienia
##bienie
##bier
##biera
##bieren
##bierz
##bies
##biet
##bieta
##bieter
##big
##biga
##bige
##bigen
##bigo
##bih
##bii
##bij
##bija
##bije
##bik
##bika
##bike
##biki
##bil
##bila
##bilan
##bilar
##bild
##bilda
##bilde
##bilden
##bilder
##bildet
##bildung
##bile
##bilecek
##bileceği
##bileceğini
##bileceğiniz
##bilen
##biler
##bili
##biliare
##bilidad
##bilidade
##bilin
##bilir
##biliriz
##bilirsiniz
##bilis
##bilita
##bilitat
##bilite
##biliteit
##bility
##bilità
##bilité
##biliyor
##bilizar
##billa
##billy
##bilmek
##bilmektedir
##bilmente
##bilmesi
##bilo
##biltà
##bim
##bimos
##bin
##bina
##bind
##binden
##binding
##bindung
##bine
##bing
##bini
##bino
##binoid
##bio
##biography
##biology
##bion
##biony
##biornik
##biory
##bios
##biotics
##biotika
##biq
##bir
##bira
##bird
##birds
##bire
##biri
##birin
##birliği
##biro
##birth
##biru
##bis
##bisa
##bise
##bisi
##biso
##bista
##bistan
##bisyon
##bit
##bita
##bitat
##bite
##biter
##biti
##bito
##bits
##bitt
##biu
##bium
##bius
##biy
##biya
##biye
##biyo
##biz
##biza
##bizi
##bizo
##biór
##bić
##bja
##bje
##bka
##bkan
##bke
##bki
##bku
##bl
##bla
##blad
##blade
##blado
##blaj
##blan
##blant
##blar
##blas
##blatt
##blay
##ble
##blea
##blecer
##blech
##bled
##blem
##blement
##blemente
##bler
##bles
##blev
##bli
##blica
##blich
##bliche
##blick
##blico
##blik
##bling
##blings
##blis
##bliża
##bliżenie
##bliższy
##blo
##block
##blocker
##blokować
##blon
##blood
##blu
##bly
##blé
##blée
##bn
##bna
##bne
##bnej
##bni
##bnik
##bnis
##bno
##bnu
##bny
##bnych
##bną
##bo
##boa
##board
##boarding
##boards
##boat
##bobo
##bod
##boden
##bodi
##bodja
##body
##boek
##boeken
##boel
##bog
##boga
##bogen
##bogi
##boh
##boi
##boj
##boja
##boje
##bok
##boka
##boko
##boks
##boksen
##bol
##bola
##bolan
##bold
##bole
##boli
##bolic
##bolik
##bolin
##bolism
##bolizma
##bolo
##bolt
##bolu
##bom
##bon
##bona
##bonat
##bond
##bonde
##bone
##bones
##boni
##bonne
##bono
##boo
##book
##books
##boom
##boot
##bor
##bora
##boran
##boratif
##bord
##borda
##bore
##borg
##bori
##born
##borne
##boro
##borough
##boru
##bory
##bos
##bosch
##bosis
##bossed
##bossing
##bot
##bote
##boti
##bots
##botten
##bou
##boud
##bound
##bour
##bourg
##bourne
##bouw
##bouwen
##bov
##boven
##bow
##bowe
##bowo
##bowy
##box
##boxing
##boy
##boya
##bps
##br
##bra
##braak
##brace
##bracht
##bración
##brado
##brados
##brae
##braj
##brak
##bral
##brale
##brali
##bram
##bran
##brana
##branche
##brand
##brando
##brane
##brani
##brania
##branie
##brano
##brar
##bras
##brat
##brate
##brati
##brating
##bration
##brator
##brauc
##bração
##brał
##bre
##bread
##break
##breaker
##brechen
##brecht
##bred
##breek
##breite
##breiten
##breken
##bren
##brengen
##brengt
##brero
##bres
##brese
##bret
##brett
##breuk
##brev
##brew
##bri
##bria
##brian
##brica
##brid
##brida
##bridge
##brief
##bril
##bring
##bringen
##bringer
##bringung
##brio
##bris
##brit
##bro
##brochen
##broek
##broidered
##broj
##broken
##bron
##bronn
##brook
##brooke
##bror
##bros
##brot
##brow
##bru
##bruch
##brud
##brug
##bruk
##brun
##brunn
##brush
##bry
##bryd
##brán
##bré
##brücken
##bs
##bsan
##bst
##bt
##bta
##bte
##bten
##bti
##bu
##bua
##buan
##buce
##buch
##buci
##buck
##bud
##buda
##bude
##budowana
##budowane
##budowany
##budowy
##budu
##bue
##bug
##buh
##bui
##builder
##building
##buja
##buje
##buk
##bul
##bula
##bule
##buli
##bulin
##bull
##bulo
##bulu
##bum
##bun
##buna
##bund
##bunda
##bunden
##bung
##bungen
##buo
##bur
##bura
##buran
##bure
##bureau
##burg
##burger
##burgh
##burgo
##burgu
##buri
##burn
##burne
##buro
##burton
##buru
##bury
##bus
##busa
##busan
##buse
##bush
##busi
##business
##buso
##busu
##but
##buta
##buti
##buting
##buto
##buye
##buz
##buza
##buze
##buzi
##buzione
##bva
##bwa
##bwe
##by
##bya
##bych
##byl
##bym
##byt
##byte
##bytek
##bytes
##bytków
##byśmy
##bá
##bás
##bär
##bè
##bé
##bê
##bí
##bín
##bít
##bî
##bò
##bó
##ból
##bólica
##bólico
##bón
##bów
##bù
##bú
##bús
##bû
##bücher
##bül
##bür
##bą
##bę
##bı
##c
##ca
##caal
##caan
##cab
##caba
##cabile
##cable
##caca
##cach
##caching
##caci
##caciones
##cación
##cad
##cada
##cadas
##cade
##cades
##cado
##cador
##cadora
##cados
##caf
##cah
##caha
##cai
##caid
##cail
##cain
##caine
##caire
##caj
##caja
##caju
##cają
##cak
##caktır
##cal
##cala
##calauréat
##caldía
##cale
##cali
##call
##cally
##calo
##calyptic
##cam
##cama
##caman
##cament
##camente
##camento
##camera
##camere
##cami
##camos
##camp
##can
##cana
##cand
##cando
##cane
##cang
##cani
##cania
##canic
##cano
##canos
##cans
##cant
##canta
##cante
##cantil
##cantile
##canu
##cany
##cao
##cap
##capa
##cape
##caping
##caq
##car
##cara
##caran
##carbon
##carbonate
##card
##cards
##care
##carea
##caret
##carga
##cari
##caria
##carrega
##carro
##cars
##carska
##cart
##carta
##cas
##casa
##case
##cases
##cash
##casian
##caso
##casso
##cast
##caster
##castle
##casus
##cası
##cat
##cata
##catan
##catcher
##cate
##cates
##cati
##catie
##cating
##cation
##cativa
##cative
##cato
##cator
##catraz
##cats
##catu
##cau
##cautions
##caux
##cavator
##cave
##cay
##caya
##caye
##cayi
##cazione
##cazioni
##cação
##cações
##caí
##cać
##cağı
##cağım
##cağına
##cağını
##cağız
##cb
##cc
##cca
##ccal
##ccan
##ccato
##cce
##ccen
##cceptable
##cceria
##cche
##cchi
##cchie
##cchiere
##cchieri
##cchini
##cchio
##cci
##ccia
##ccin
##ccio
##ccioli
##cciolo
##ccion
##ccionar
##cciones
##cciu
##cción
##cco
##ccupazione
##ccus
##cd
##ce
##cea
##ceae
##ceau
##cebo
##ced
##ceda
##cede
##cedente
##ceder
##cedo
##cedor
##cedores
##cee
##ceen
##ceerd
##ceg
##cego
##cei
##ceira
##ceiro
##ceived
##ceiver
##cej
##cek
##cektir
##cel
##cela
##celaria
##celarii
##cele
##celes
##celi
##cell
##cella
##celle
##celler
##celli
##cello
##cellular
##celo
##celt
##cem
##cemar
##cement
##cemi
##cemia
##cemos
##cen
##cena
##cence
##cencia
##cend
##cende
##cender
##cendido
##cendo
##cene
##ceni
##cenia
##cenie
##ceno
##cens
##censão
##cent
##centa
##centar
##cente
##center
##centes
##centi
##cento
##centra
##centre
##centro
##centrum
##ceny
##cenza
##ceo
##ceous
##cep
##cepció
##ceps
##cept
##ception
##ceptive
##ceptor
##cepção
##cer
##cera
##cerc
##cere
##ceres
##ceri
##cerin
##cerit
##cern
##cero
##ceros
##cers
##cería
##ces
##cesa
##cesas
##cese
##cesi
##ceso
##cess
##cession
##cesso
##ceste
##cet
##ceta
##ceti
##cetta
##ceu
##ceum
##cev
##cey
##cezji
##ceği
##ceğim
##ceğini
##ceğiniz
##ceğiz
##ceń
##ch
##cha
##chaa
##chable
##chach
##chae
##chaet
##chaf
##chaffen
##chafft
##chaffung
##chaft
##chaften
##chaftliche
##chage
##chagua
##chai
##chain
##chair
##chais
##chaj
##chak
##chal
##chala
##chale
##chali
##chalten
##cham
##chama
##champ
##chan
##chana
##chando
##chang
##change
##chani
##channel
##chant
##chap
##chappen
##char
##chara
##chard
##charge
##charged
##charger
##chas
##chasi
##chat
##chau
##chauen
##chaut
##chać
##chd
##che
##chea
##check
##ched
##chee
##chef
##cheid
##chein
##chek
##chel
##cheln
##chem
##chema
##chement
##chemical
##chemist
##chemistry
##chen
##chena
##chend
##cheng
##chenken
##chenko
##chent
##cher
##chera
##chere
##chern
##chers
##chert
##cherung
##ches
##chester
##chet
##cheta
##chete
##chetta
##chette
##chetti
##chev
##chez
##chfield
##chi
##chia
##chial
##chiato
##chiatric
##chiatrie
##chic
##chichtung
##chick
##chicken
##chid
##chida
##chie
##chieben
##chied
##chieden
##chiedenis
##chief
##chii
##chil
##child
##chile
##chilla
##chillo
##chim
##chin
##china
##chine
##ching
##chini
##chino
##chio
##chip
##chiq
##chir
##chiri
##chis
##chison
##chiste
##chita
##chite
##chitis
##chium
##chka
##chl
##chlag
##chlagen
##chli
##chlich
##chließen
##chließt
##chloss
##chlossen
##chluss
##chläge
##chman
##chmann
##chna
##chne
##chnen
##chner
##chnet
##chni
##chnia
##chnie
##chnik
##chnung
##cho
##choben
##chod
##chodem
##chodni
##chodu
##chody
##chodzi
##chodzie
##chodzą
##choenen
##chom
##chon
##chons
##chool
##chor
##chos
##choss
##chossen
##choten
##chou
##chow
##chowa
##chra
##chreiben
##chrift
##chriften
##chrijving
##christ
##chrome
##chränken
##chränkungen
##chs
##chschule
##chst
##chste
##cht
##chta
##chtar
##chte
##chten
##chter
##chtet
##chtig
##chtige
##chtigen
##chtigt
##chtigung
##chting
##chtlich
##chtones
##chtung
##chtungen
##chu
##chuhe
##chuk
##chula
##chuldigd
##chule
##chun
##chung
##chunge
##chungen
##chur
##chure
##chus
##chute
##chutz
##chy
##chym
##chá
##chán
##chädigt
##chätzung
##chè
##ché
##chéance
##chés
##chí
##chód
##chón
##chów
##ci
##cia
##ciable
##ciach
##ciado
##ciais
##cial
##ciamiento
##ciamo
##cian
##ciana
##ciano
##cianos
##cians
##ciar
##ciare
##cias
##ciata
##ciation
##ciato
##ciatore
##ciau
##cible
##cic
##cica
##cich
##cid
##cida
##cidad
##cidade
##cidas
##cide
##cidente
##cidere
##cides
##cidi
##cidio
##cido
##cidos
##cie
##cieczka
##ciekawsze
##ciel
##ciele
##ciem
##cien
##cience
##ciencia
##ciency
##ciende
##ciendo
##cieni
##ciens
##cient
##ciente
##cientes
##cier
##ciere
##cieron
##cies
##ciet
##cieuse
##cieuses
##cieux
##cih
##cii
##cij
##cija
##cijo
##cik
##cika
##cil
##cila
##cilan
##cile
##ciler
##cili
##ciliación
##ciliar
##ciliation
##cilik
##cilio
##cilla
##cillator
##cillin
##cils
##cim
##cima
##cimento
##cimi
##cimiento
##cimo
##cin
##cina
##cinado
##cinane
##cinant
##cine
##cing
##cini
##cinio
##cinis
##cino
##cinos
##cinta
##cio
##cion
##ciona
##cionada
##cionadas
##cionado
##cionados
##cionais
##cional
##cionalmente
##cionamento
##cionamiento
##cionando
##cionar
##cionari
##cione
##cionen
##ciones
##cioni
##cionou
##cionó
##cios
##ciosa
##cioso
##ciosos
##ciou
##cious
##cip
##cipa
##cipation
##cipe
##cipi
##cipo
##cir
##cira
##ciro
##cis
##cisa
##cise
##cisi
##cision
##cism
##cisme
##cismo
##ciso
##cist
##cista
##cisti
##cists
##cit
##cita
##citan
##citar
##citat
##cite
##citer
##cites
##citi
##cito
##citor
##citors
##citos
##city
##cità
##cité
##ciu
##cium
##cius
##ciutto
##ciwe
##ciya
##ciye
##cià
##cière
##ciência
##ciò
##ció
##ción
##ciú
##ciąga
##ciągi
##ciągnąć
##cić
##ciğer
##cił
##cja
##cjach
##cjacji
##cjalnie
##cjami
##cje
##cji
##cjom
##cjonalnie
##cjonalny
##cjonalnych
##cją
##cję
##ck
##cka
##ckar
##cke
##cked
##ckel
##ckelt
##cken
##cker
##ckers
##cket
##cki
##ckich
##ckie
##ckiego
##ckiej
##ckim
##cking
##ckle
##cknen
##ckner
##cko
##ckor
##cks
##ckt
##ckte
##ckten
##cku
##cky
##cká
##cką
##cl
##cla
##clable
##clado
##clagem
##clair
##clama
##clar
##class
##clat
##clave
##claves
##cle
##clear
##cles
##clette
##cli
##clic
##clid
##cliff
##cliffe
##clin
##cline
##cling
##clip
##clis
##clist
##clista
##clistes
##clists
##clo
##clonal
##clore
##cloth
##club
##clubs
##clude
##clus
##clusion
##clusione
##cm
##cna
##cne
##cni
##cnica
##cno
##co
##coa
##coach
##coat
##cob
##coba
##coca
##cock
##coco
##code
##codes
##coe
##coin
##coj
##cok
##col
##cola
##colano
##colar
##colare
##colari
##colata
##colato
##cole
##coles
##coli
##colo
##cologia
##cologie
##cology
##cología
##color
##colta
##com
##coma
##comb
##combe
##come
##comer
##coming
##commande
##computer
##con
##cona
##cond
##conda
##cone
##cones
##cong
##coni
##cono
##cons
##conscious
##conto
##control
##cony
##cool
##coon
##coop
##copa
##cope
##copia
##copic
##copo
##copter
##copy
##cor
##cora
##coran
##corbic
##cord
##corder
##core
##corn
##corre
##corrente
##corsi
##corso
##cos
##cosa
##cose
##cosis
##cosity
##coso
##cost
##cot
##cota
##cote
##coterapia
##cots
##cott
##cotta
##cou
##count
##counter
##country
##course
##court
##cous
##couvrir
##cov
##cover
##covi
##covo
##cow
##cowego
##cownicy
##cowy
##cr
##cra
##cracy
##craft
##cran
##crat
##crate
##crates
##cratic
##crats
##cre
##creen
##creme
##crest
##cri
##cribe
##cribed
##cribirse
##crie
##cripciones
##cripción
##cript
##cription
##crire
##cris
##crit
##crita
##crites
##crito
##critos
##crits
##crivent
##crizione
##crição
##cro
##croft
##cross
##crypha
##crypt
##cs
##csa
##csi
##ct
##cta
##ctable
##ctado
##ctal
##ctar
##cte
##cted
##cten
##cter
##ctes
##cteur
##cteuren
##cteurs
##cti
##ctic
##ctica
##ctie
##ctin
##cting
##ctio
##ction
##ctionele
##ctions
##ctis
##ctiv
##ctiva
##ctive
##ctividad
##ctividade
##ctivo
##ctivos
##cto
##ctomy
##cton
##ctor
##ctores
##ctos
##ctou
##ctrica
##cts
##ctu
##ctum
##ctura
##cture
##cturing
##ctus
##ctwa
##ctwo
##cu
##cua
##cuación
##cuar
##cuation
##cube
##cucho
##cuda
##cui
##cuit
##cuje
##cuk
##cul
##cula
##culación
##culaire
##culaires
##culan
##cular
##culas
##culata
##culate
##culated
##culation
##culação
##cule
##cules
##culi
##culo
##culos
##culous
##cult
##culta
##cultor
##cultura
##cultural
##culture
##culu
##culum
##culus
##cum
##cuma
##cun
##cuno
##cunu
##cuo
##cup
##cupa
##cur
##cura
##curan
##cure
##curi
##curial
##curio
##curité
##curo
##cus
##cuse
##cussion
##cussions
##cusu
##cut
##cuta
##cutaneous
##cute
##cuti
##cuts
##cy
##cych
##cycle
##cyjna
##cyjne
##cyjnego
##cyjnej
##cyjnie
##cyjny
##cyjnych
##cyjnym
##cyjną
##cykl
##cykle
##cylic
##cym
##cymi
##cyn
##cyo
##cyt
##cyte
##cytes
##cz
##cza
##czaj
##czają
##czające
##czak
##czam
##czane
##czania
##czanie
##czas
##czać
##cze
##czego
##czególnym
##czej
##czek
##czem
##czeni
##czenia
##czenie
##czeniem
##czeniu
##czesna
##czesne
##czesnego
##czesny
##czesnym
##czesną
##czeń
##czeństwa
##czeństwie
##czeństwo
##cześnie
##czka
##czki
##czkę
##czna
##czne
##cznego
##cznej
##czni
##cznie
##cznik
##cznika
##czniki
##czno
##czności
##czność
##czny
##cznych
##cznym
##czną
##czo
##czona
##czone
##czono
##czony
##czonych
##czonym
##czoną
##czość
##czu
##czucia
##czy
##czych
##czycy
##czyk
##czyki
##czyli
##czym
##czymy
##czyn
##czynek
##czyny
##czyt
##czyzny
##czyć
##czył
##czyła
##czą
##czące
##czący
##czących
##cząt
##czę
##częto
##częśliwa
##cà
##cá
##cán
##cánica
##când
##cão
##cção
##cède
##cès
##cèse
##cé
##cédent
##céder
##cée
##cées
##cén
##cés
##céutica
##cê
##cên
##cí
##cía
##cían
##cílio
##cín
##cínio
##cís
##cível
##cî
##cò
##có
##cóloga
##cón
##ców
##cú
##cü
##cük
##cükler
##cüme
##cüsü
##cą
##cę
##cı
##cık
##cılar
##cıları
##cıların
##cılık
##cılığı
##cın
##cının
##cısı
##d
##dB
##da
##daa
##daags
##daal
##daan
##dab
##daba
##dable
##dach
##dacht
##dad
##dada
##dade
##dades
##dado
##dadır
##dae
##dag
##dage
##dagen
##dager
##dags
##dah
##dahl
##dai
##daich
##dail
##dain
##dair
##dais
##daj
##daje
##dak
##daka
##dakari
##daki
##dako
##dal
##dala
##dale
##dalen
##dalena
##dali
##dall
##dalo
##dalı
##dam
##dama
##dame
##damente
##damento
##dami
##damus
##dan
##dana
##dance
##danda
##dane
##dang
##dani
##dania
##danie
##daniem
##dann
##danne
##dano
##dans
##dant
##danta
##dante
##dany
##daní
##dap
##dar
##dara
##dare
##dari
##daro
##dary
##darı
##das
##dase
##dat
##data
##date
##daten
##dates
##dati
##dation
##dato
##datu
##datum
##dau
##dauer
##dava
##daw
##dawcy
##dax
##day
##daya
##days
##daí
##dać
##dağ
##daş
##daşlar
##db
##dba
##dbe
##dberg
##dbi
##dbo
##dbu
##dc
##dca
##dce
##dchen
##dd
##dda
##ddar
##dde
##ddel
##dden
##dder
##ddes
##ddet
##ddi
##ddin
##dding
##ddir
##ddle
##ddo
##ddu
##ddy
##de
##dea
##deak
##deal
##dean
##deas
##deau
##deb
##debe
##dec
##decer
##dech
##decim
##decke
##decken
##deckt
##deco
##ded
##dede
##dedildi
##dee
##deed
##deel
##deen
##deer
##def
##deg
##dega
##dege
##dego
##degradable
##deh
##dehyde
##dei
##deid
##deira
##deiro
##deiros
##dej
##dek
##deka
##deki
##dekke
##deko
##deks
##del
##dela
##delan
##delas
##dele
##delem
##delen
##deler
##deli
##delic
##delig
##delijk
##delijke
##delik
##deling
##delingen
##delion
##dell
##della
##delle
##delo
##dels
##delt
##dem
##dema
##demar
##deme
##demi
##demie
##demir
##demli
##demos
##den
##dena
##dence
##dencia
##dende
##dene
##deng
##deni
##denie
##denis
##denken
##deno
##dens
##dense
##dent
##denta
##dente
##dentemente
##denti
##denum
##denz
##denza
##deo
##deos
##dep
##dequate
##der
##dera
##deras
##derau
##derd
##derde
##dere
##deren
##derer
##deri
##deria
##derie
##dering
##derlijk
##derm
##derma
##dermal
##dern
##derno
##dero
##deros
##ders
##dert
##deru
##dery
##dería
##des
##desa
##dese
##desi
##design
##desk
##desse
##dessen
##dest
##desta
##det
##deta
##dete
##deti
##dett
##detta
##detti
##deu
##deur
##deus
##deutsche
##dev
##deva
##dew
##dex
##dey
##dez
##deş
##df
##dge
##dges
##dging
##dh
##dha
##dhan
##dhar
##dhe
##dheid
##dhi
##dho
##dhu
##dhury
##di
##dia
##diaan
##diad
##diak
##diam
##dian
##diana
##diano
##dias
##diat
##dib
##dic
##dica
##dicare
##dicat
##dice
##dich
##dicht
##dichte
##dici
##dicio
##dicional
##dición
##dick
##dico
##diction
##did
##dida
##dide
##didi
##dido
##didos
##die
##diel
##dien
##diena
##diendo
##diens
##dienst
##dienste
##diensten
##dienstleister
##dier
##dieren
##dies
##diet
##dig
##diga
##digd
##digde
##dige
##digen
##diger
##digheid
##digi
##diging
##digt
##digung
##dii
##dija
##dije
##dik
##dika
##dike
##diki
##dikleri
##dil
##dila
##dile
##diler
##dili
##dilla
##dillo
##dilo
##dim
##dimento
##dimi
##dimiento
##dimo
##dimos
##din
##dina
##dinas
##dindo
##dine
##dines
##ding
##dinge
##dingen
##dingi
##dings
##dington
##dinha
##dini
##dinin
##dinis
##dino
##dins
##diny
##dio
##dion
##dional
##dios
##dip
##dique
##diques
##dir
##dira
##dire
##diri
##dirler
##diro
##dis
##disa
##disce
##disch
##dische
##disciplinar
##disciplinary
##dise
##disi
##disk
##dist
##dista
##distrikt
##dit
##dita
##ditas
##ditch
##dite
##diti
##dition
##dito
##ditos
##dits
##ditur
##dity
##dità
##diu
##dium
##div
##diva
##dive
##diven
##diversidade
##diversity
##diy
##diya
##diyo
##diz
##diza
##dizi
##dizione
##dizo
##dição
##dió
##diği
##diğini
##dj
##dja
##dje
##dji
##dju
##dka
##dke
##dki
##dko
##dku
##dl
##dla
##dlar
##dları
##dle
##dleni
##dler
##dles
##dley
##dli
##dlich
##dliche
##dlichen
##dling
##dlo
##dlow
##dlu
##dly
##dlı
##dma
##dman
##dmet
##dmu
##dn
##dna
##dne
##dnego
##dnej
##dnes
##dni
##dnia
##dnicy
##dnie
##dnik
##dnika
##dniki
##dnim
##dno
##dności
##dność
##dnu
##dny
##dnych
##dnym
##dną
##do
##doa
##dob
##doba
##dobi
##dobne
##doby
##doc
##doch
##dock
##dod
##doda
##dodendron
##doek
##doeleinden
##doen
##doende
##dog
##dogs
##doin
##doj
##dok
##dol
##dola
##dole
##doli
##doll
##dolo
##dom
##doma
##domain
##domar
##dome
##domi
##dommen
##domo
##don
##dona
##done
##dong
##donga
##doni
##donia
##donien
##donis
##dono
##doo
##dood
##door
##dopodobne
##dor
##dora
##doras
##dore
##dores
##dorf
##dori
##doria
##doro
##dorp
##dors
##doru
##dos
##dose
##dosi
##dosis
##dosta
##dot
##dota
##dote
##doti
##dotos
##dott
##dotta
##dotti
##dotto
##dotus
##dou
##dov
##dova
##dow
##dowa
##dowe
##dowego
##down
##dowy
##dowych
##dową
##dozer
##doğan
##doğu
##dp
##dr
##dra
##draai
##drach
##dracht
##drado
##drag
##dragen
##drait
##dral
##dram
##drama
##dran
##drana
##drar
##dras
##drat
##dre
##dred
##drem
##drer
##dres
##dress
##dresse
##dret
##drez
##dri
##dria
##drich
##drick
##drid
##dridge
##drie
##drift
##drin
##drina
##dring
##dringen
##dris
##drive
##driver
##dro
##droi
##drom
##drome
##dron
##dront
##drop
##dros
##dru
##druck
##druk
##drukken
##drukking
##drukt
##drum
##dry
##drá
##dré
##drücken
##ds
##dsa
##dse
##dsen
##dson
##dt
##dte
##dto
##du
##dua
##dub
##duc
##duce
##ducer
##duct
##duction
##ductory
##dud
##due
##dues
##dug
##duh
##dui
##duir
##duisant
##duit
##duje
##dujo
##duk
##duka
##duko
##dul
##dula
##dular
##dule
##duli
##dulla
##dulo
##dulum
##dum
##duma
##dumi
##dumu
##dun
##duna
##dung
##duni
##dur
##dura
##duran
##duras
##durch
##dure
##duri
##durma
##duro
##durre
##durulmuş
##dus
##duse
##dusse
##dust
##dut
##duta
##duti
##duto
##duur
##duz
##duzca
##duze
##duzido
##duzione
##duğu
##duğunu
##dva
##dve
##dw
##dwa
##dwar
##dwe
##dwi
##dwo
##dy
##dya
##dych
##dycji
##dym
##dyn
##dynamic
##dyr
##dys
##dyt
##dyta
##dyń
##dz
##dza
##dzania
##dzanie
##dzać
##dze
##dzenia
##dzenie
##dzeniu
##dzeń
##dzi
##dzia
##dziale
##dział
##dzie
##dziela
##dzieli
##dzielnego
##dziesięciu
##dzień
##dzieży
##dziko
##dzis
##dziwa
##dzić
##dził
##dziła
##dzo
##dzona
##dzone
##dzony
##dzonych
##dztwo
##dzu
##dzy
##dzą
##dząc
##dzę
##dà
##dá
##dán
##dão
##dä
##dät
##dè
##dé
##dée
##dées
##démie
##dés
##dési
##dê
##dên
##dência
##dências
##dì
##dí
##día
##dín
##dís
##dî
##dò
##dó
##dóm
##dón
##dós
##dów
##dú
##dún
##dû
##dü
##düm
##dür
##düz
##düğü
##dą
##dę
##dı
##dık
##dılar
##dım
##dın
##dır
##dırma
##dırıcı
##dırın
##dığı
##dığım
##dığımız
##dığını
##dışı
##dł
##dła
##dło
##dő
##dź
##e
##ea
##eaba
##eable
##each
##ead
##eado
##eae
##eag
##eak
##eal
##ealed
##eall
##eam
##eamente
##ean
##eana
##ear
##eart
##eas
##ease
##east
##eat
##eath
##eau
##eaux
##eb
##eba
##ebbe
##ebe
##ebek
##ebel
##eben
##eber
##ebet
##ebi
##ebilecek
##ebilir
##ebilirsiniz
##ebla
##eble
##ebles
##ebo
##ebra
##ebre
##ebri
##ebro
##ebt
##ebu
##eby
##ec
##eca
##ecada
##ecas
##ecat
##ección
##ece
##ecek
##ecektir
##ecen
##ecer
##eces
##eceği
##eceğini
##eceğiz
##ech
##echa
##eche
##echen
##echi
##echt
##echu
##eci
##ecia
##ecias
##ecie
##ecil
##eck
##ecka
##ecken
##eckung
##eco
##econ
##economic
##ect
##ecta
##ectat
##ecte
##ected
##ecteur
##ection
##ectious
##ective
##ecto
##ectomy
##ectos
##ects
##ecution
##eczka
##eczko
##eczna
##eczny
##ecznych
##ecznym
##ecção
##ecções
##ecí
##ed
##eda
##edad
##edal
##edance
##edar
##edat
##edd
##edda
##ede
##edel
##eden
##eder
##ederación
##edere
##eders
##edes
##edet
##edge
##edi
##edia
##ediad
##edici
##edida
##edie
##edig
##edik
##edil
##edili
##edimento
##edina
##eding
##edio
##edip
##edir
##edit
##edita
##edite
##ediu
##edió
##edka
##edla
##edli
##edne
##edni
##edo
##edon
##edono
##edoo
##edor
##edores
##edra
##edral
##edras
##edru
##eds
##edt
##edu
##edura
##edy
##edza
##edzo
##ee
##eeb
##eed
##eef
##eeft
##eeing
##eek
##eel
##eeld
##eelt
##eem
##een
##eenheid
##eenkomst
##eens
##eep
##eer
##eerd
##eerde
##eere
##eering
##eers
##eerst
##eert
##ees
##eet
##eev
##ef
##efa
##efd
##efen
##eff
##efi
##eft
##efu
##efy
##eg
##ega
##egaan
##egar
##egas
##ege
##egee
##egel
##egen
##eger
##egg
##eggi
##eggio
##egi
##egia
##egin
##egio
##egn
##egna
##egne
##egno
##ego
##egol
##egon
##egos
##egranate
##egs
##egse
##egt
##egu
##egue
##egun
##egur
##egura
##eh
##eha
##ehan
##ehe
##ehen
##ehi
##ehlen
##eho
##ehre
##eht
##ehung
##ei
##eia
##eic
##eica
##eid
##eide
##eiden
##eien
##eier
##eig
##eigh
##eight
##eik
##eika
##eiku
##eil
##eile
##eilen
##eiler
##eilla
##eille
##eim
##ein
##eina
##einander
##eine
##einen
##eink
##einn
##eins
##einstellungen
##eint
##eio
##eir
##eira
##eiras
##eire
##eiri
##eiro
##eiros
##eis
##eise
##eisen
##eist
##eista
##eit
##eita
##eite
##eiten
##eith
##eiti
##eito
##eits
##eix
##eição
##ej
##eja
##ejar
##ejas
##eje
##eji
##ejk
##ejn
##ejo
##ejos
##ejszy
##eju
##ek
##eka
##ekam
##ekana
##ekane
##ekar
##ekat
##ekcja
##eke
##ekel
##eken
##ekend
##ekende
##eker
##ekh
##ekho
##eki
##ekiem
##ekile
##ekin
##ekk
##ekking
##ekla
##ekle
##ekli
##eko
##ekom
##ekre
##eks
##eksi
##ekt
##ekta
##ekte
##ekti
##ektif
##ektion
##ektiv
##ektive
##ekto
##ektor
##eku
##el
##ela
##elada
##elado
##elage
##elam
##elan
##elang
##elany
##elar
##elas
##elat
##eld
##elda
##elde
##eldi
##eldig
##ele
##electric
##eled
##elee
##elei
##elek
##elele
##elem
##elen
##elene
##eleni
##eleon
##eler
##elerator
##elere
##eleri
##eles
##elet
##elette
##eley
##elf
##eli
##elia
##elidir
##elig
##elige
##elijk
##elijke
##elik
##elim
##elin
##elina
##eline
##eling
##elio
##elis
##elit
##eliu
##elius
##elka
##ell
##ella
##ellan
##ellar
##ellat
##elle
##elled
##ellem
##ellen
##eller
##elles
##elli
##elling
##ellingen
##ellini
##ellit
##ello
##ells
##ellt
##elma
##elman
##elme
##elmes
##elmi
##elmä
##eln
##elne
##elni
##elno
##elo
##elon
##elooflijk
##eloos
##elor
##elos
##elp
##els
##else
##elser
##elson
##elt
##elta
##elte
##eltme
##eltmek
##elu
##elun
##elve
##elwa
##elwe
##ely
##elá
##elé
##elés
##em
##ema
##emak
##eman
##emann
##emas
##emat
##emata
##ematis
##emba
##embar
##ember
##embi
##embra
##embrance
##embre
##emd
##emde
##eme
##emen
##emena
##ement
##emente
##ements
##emer
##emes
##emi
##emia
##emie
##emin
##eminen
##emit
##emm
##emma
##emme
##emmin
##emne
##emnie
##emo
##emon
##emos
##emp
##empa
##empe
##empel
##empi
##emplar
##emplare
##empo
##ems
##emt
##emu
##emus
##emy
##en
##ena
##enaar
##enada
##enak
##enal
##enan
##enant
##enar
##enario
##enas
##enat
##enau
##enbach
##enberg
##enburg
##enc
##enca
##ence
##ences
##ench
##enci
##encia
##encie
##encio
##enco
##ency
##end
##enda
##endaal
##endam
##endan
##endant
##endas
##ende
##enden
##ender
##endere
##endes
##endet
##endeu
##endi
##endido
##ending
##endio
##enditure
##endium
##endo
##endom
##endra
##endu
##ene
##ened
##enee
##enek
##enen
##ener
##enera
##eneral
##energie
##eners
##enes
##enet
##enez
##eng
##enga
##enge
##engen
##engi
##engo
##enham
##enheit
##eni
##enia
##enian
##enic
##enica
##enice
##enie
##eniem
##enii
##enik
##enin
##enina
##ening
##eningen
##eniny
##enio
##enir
##enis
##enit
##enite
##eniu
##enium
##enius
##enja
##enk
##enka
##enke
##enker
##enki
##enko
##enkomst
##enku
##enli
##enn
##enna
##enne
##ennego
##ennej
##ennent
##enni
##enno
##ennt
##enny
##ennych
##ennym
##enné
##eno
##enol
##enom
##enon
##enos
##enou
##ens
##ensa
##ense
##enser
##enses
##ensi
##ensible
##ensie
##ensio
##ension
##ensional
##ensis
##ensiv
##ensive
##enso
##ensor
##enstein
##ensão
##ensä
##ent
##enta
##entación
##entar
##entation
##ente
##entem
##entemente
##enten
##enter
##entes
##enti
##entia
##ential
##entino
##ention
##entis
##entive
##ento
##entos
##entre
##entrum
##ents
##entu
##entum
##entwicklung
##enu
##enum
##enus
##eny
##enyu
##enz
##enza
##enze
##enzi
##enziati
##enzie
##enzo
##ená
##enário
##enä
##ença
##ené
##ení
##eną
##eo
##eog
##eoir
##eol
##eologia
##eon
##eona
##eones
##eopatra
##eoporose
##eos
##eous
##eousness
##ep
##epa
##epam
##epe
##epen
##eper
##epi
##epit
##epite
##epo
##epp
##epper
##epsi
##ept
##eption
##eq
##equently
##er
##era
##eración
##eracji
##erad
##erade
##erador
##eraj
##erak
##eral
##eram
##eran
##erana
##erance
##erang
##erania
##erans
##erante
##eranya
##eranz
##erapi
##erapia
##erapie
##erar
##erare
##eras
##erasyon
##erat
##erata
##erate
##eratif
##eration
##erativ
##erative
##erativo
##erator
##eratu
##erać
##erb
##erba
##erbare
##erbe
##erberg
##erc
##erci
##erco
##erd
##erde
##erden
##erder
##erders
##erdi
##ere
##erea
##ered
##erei
##erek
##erem
##eren
##erence
##erencia
##erend
##erende
##erens
##erent
##erentie
##erenza
##erer
##eres
##eret
##ereza
##erf
##erfahrung
##erfect
##erg
##erge
##ergen
##erges
##ergi
##ergie
##ergy
##eri
##eria
##erian
##erib
##eric
##erici
##erick
##erid
##erida
##erie
##erien
##erier
##eries
##eriet
##erig
##erige
##erii
##erij
##erik
##erika
##erike
##erile
##erilerini
##erim
##eriment
##erimenti
##erimento
##erin
##erina
##erine
##ering
##eringen
##erings
##erio
##erir
##eris
##erit
##erite
##eriti
##erito
##eriu
##erium
##erius
##erja
##erk
##erka
##erke
##erken
##erker
##erkt
##erland
##erli
##erly
##erm
##erma
##erman
##ermann
##ermen
##ermina
##ermine
##ermo
##ern
##erna
##ernal
##ernas
##erne
##ernel
##erni
##ernie
##erning
##erno
##ero
##erol
##erom
##eron
##eros
##erowana
##erowane
##erowany
##erra
##erre
##erred
##erri
##ers
##ersa
##erse
##ersen
##ersi
##ersion
##erski
##erso
##erson
##erst
##ert
##erta
##erte
##erten
##erter
##ertes
##erti
##ertido
##erto
##ertoire
##erton
##ertos
##erts
##erty
##eru
##eruje
##erum
##erung
##erungen
##erus
##erv
##erva
##ervaring
##ervat
##ervation
##ervatori
##ervatorio
##ervazioni
##ervação
##erve
##erver
##ervi
##ervice
##erville
##erving
##ervis
##ervo
##ervé
##erwa
##erweise
##erwona
##erwować
##ery
##erz
##erza
##erze
##erzi
##erzo
##erà
##erá
##eré
##erên
##ería
##erî
##erów
##erń
##es
##esa
##esan
##esar
##esas
##esat
##esc
##esca
##escence
##escent
##esch
##esche
##eschen
##eschi
##esco
##escu
##esd
##ese
##esen
##eser
##eses
##eset
##esh
##esha
##esi
##esia
##esid
##esie
##esimo
##esin
##esina
##esine
##esio
##esis
##esit
##esión
##esjonalnie
##esk
##eska
##eske
##eski
##esku
##esli
##eslo
##esna
##esne
##esni
##eso
##eson
##esor
##esos
##ess
##essa
##essant
##esse
##essed
##essen
##esser
##esses
##esset
##essi
##essin
##ession
##essione
##essions
##essive
##esso
##essor
##essä
##est
##esta
##estamente
##estan
##estar
##estas
##estation
##este
##ested
##esten
##ester
##esti
##estic
##estie
##esting
##esto
##estra
##estre
##estri
##estro
##ests
##estu
##estä
##esu
##esve
##eswa
##esy
##esz
##eszczony
##eszczonych
##et
##eta
##etacular
##etag
##etai
##etal
##etan
##etana
##etano
##etar
##etas
##etat
##etate
##etbal
##ete
##eted
##etek
##etem
##eten
##eter
##etera
##etes
##etet
##eth
##etha
##ethe
##ethi
##etho
##eti
##etia
##etic
##etica
##etición
##etid
##eties
##etik
##etim
##etin
##etine
##eting
##etis
##etit
##etiti
##etition
##etitive
##etje
##etjes
##etka
##etki
##etlen
##etne
##etni
##etno
##eto
##eton
##etor
##etos
##etov
##etra
##etre
##etri
##etro
##etru
##ets
##etse
##ett
##etta
##ettata
##ettati
##ettava
##ette
##etten
##etter
##ettes
##ettet
##etti
##ettin
##etting
##etto
##etts
##ettu
##ettur
##etu
##etun
##etur
##etus
##etwa
##ety
##etz
##etzen
##etzt
##età
##etçi
##eté
##etê
##etí
##etą
##eu
##euen
##euer
##euil
##eul
##eum
##eumatic
##eun
##eur
##eure
##euren
##europa
##eurs
##eus
##euse
##eusement
##euses
##eut
##eux
##euze
##ev
##eva
##evable
##eval
##evan
##evar
##evat
##evate
##eve
##even
##ever
##eves
##evi
##evic
##evik
##eville
##evin
##evine
##eving
##evisi
##evne
##evo
##evoir
##evoli
##evski
##evu
##ew
##ewa
##ewar
##ewe
##ewi
##ewikkeld
##ews
##ewski
##ewu
##ex
##ext
##exual
##ey
##eya
##eyda
##eye
##eyer
##eyh
##eyi
##eyin
##eyn
##eyo
##eys
##ez
##eza
##ezd
##eze
##ezen
##ezer
##ezet
##ezi
##ezia
##ezie
##ezies
##ezing
##ezione
##ezioni
##ezo
##ezu
##ezwa
##ezy
##ezza
##ezze
##ezzi
##eßen
##eá
##eã
##eão
##eä
##eção
##eë
##eña
##eño
##eón
##eões
##eć
##eği
##eğin
##eł
##eń
##eś
##eść
##eş
##eşme
##eşti
##eż
##eża
##f
##fa
##faa
##faat
##fab
##fabrik
##face
##facer
##fach
##fachen
##facht
##fact
##factory
##fad
##fada
##fade
##fado
##fag
##faga
##fah
##fahan
##fahren
##fahrer
##fahrt
##fahrten
##fai
##fair
##fais
##fait
##faith
##faiye
##faj
##fak
##faka
##faktor
##fakı
##fal
##fala
##falda
##fale
##falen
##fali
##fall
##falla
##falle
##fallen
##fallende
##faller
##falls
##falo
##falt
##faly
##fam
##familiar
##familie
##fan
##fana
##fane
##fang
##fangen
##fanger
##fani
##fanie
##fano
##fans
##fant
##fante
##faq
##far
##fara
##farbe
##fare
##fari
##farin
##faring
##faro
##fart
##fartal
##fas
##fase
##faser
##fasi
##fassen
##fassung
##fast
##faste
##fat
##fata
##fate
##fatizo
##fato
##fatta
##fatti
##faty
##fau
##favor
##fax
##fay
##faz
##fazer
##fazi
##fb
##fc
##fd
##fde
##fdi
##fe
##fea
##fecho
##fect
##fectant
##fection
##fed
##fee
##feest
##fehler
##fei
##feier
##feil
##feit
##feita
##feito
##fek
##feksiyon
##fekt
##fel
##fela
##feld
##feldt
##fele
##feli
##fell
##fels
##felt
##fem
##fen
##feng
##fenster
##fer
##fera
##ferans
##fere
##ference
##ferencia
##ferencja
##ferente
##ferenza
##feri
##ferie
##ferien
##ferit
##feriti
##ferito
##ferma
##fern
##fero
##ferol
##fers
##fert
##ferta
##fertigt
##fes
##fesa
##fesi
##feso
##fest
##feste
##festival
##fet
##feta
##feti
##fetta
##fetti
##fetto
##feu
##fey
##fez
##fezione
##ff
##ffa
##ffar
##ffat
##ffe
##ffee
##ffein
##ffel
##ffen
##ffer
##fferenz
##ffes
##ffeur
##ffi
##ffice
##fficial
##ffie
##ffin
##ffing
##ffix
##ffle
##ffler
##ffnung
##ffon
##ffs
##fft
##ffusion
##ffy
##ffé
##fi
##fia
##fiai
##fian
##fiant
##fiante
##fiar
##fiato
##fic
##fica
##ficaciones
##ficación
##ficada
##ficadas
##ficado
##ficador
##ficados
##ficando
##ficante
##ficar
##ficare
##ficas
##ficat
##ficata
##ficate
##ficati
##fication
##fications
##ficato
##ficazione
##ficazioni
##ficação
##ficações
##fice
##ficeerd
##ficent
##ficere
##fiche
##fici
##ficient
##ficio
##ficios
##fico
##ficos
##ficou
##fiction
##ficó
##fid
##fida
##fide
##fidi
##fido
##fie
##fied
##fiel
##field
##fielder
##fields
##fier
##fiera
##fiere
##fieren
##fiers
##fies
##fiets
##fig
##fighter
##fighters
##figur
##figuration
##fii
##fija
##fik
##fika
##fikacji
##fikasyon
##fikat
##fikation
##fiki
##fiku
##fikuje
##fil
##fila
##file
##filer
##files
##fili
##filia
##fill
##film
##filmer
##filo
##filter
##fim
##fin
##fina
##final
##finale
##finansowanie
##finde
##finden
##finder
##findet
##findung
##fine
##fined
##finer
##fing
##finger
##fini
##finil
##finished
##finn
##fino
##fio
##fique
##fiquen
##fiques
##fir
##fira
##fire
##fires
##firi
##firma
##firmo
##firo
##fis
##fische
##fish
##fisi
##fisica
##fisk
##fist
##fit
##fita
##fite
##fiteatro
##fiti
##fitrión
##fits
##fitti
##fitto
##fix
##fiy
##fiye
##fiz
##fizieren
##fiziert
##fizierung
##fié
##fiée
##fja
##fje
##fjord
##fka
##fke
##fl
##fla
##flad
##flake
##flamasyon
##flanke
##flar
##flas
##fle
##fleet
##flen
##fler
##fles
##flex
##fli
##flich
##flies
##flik
##flis
##flon
##floor
##flora
##flow
##flower
##flu
##flug
##fluss
##fly
##fläche
##flächen
##fman
##fn
##fna
##fnahme
##fne
##fni
##fnir
##fnis
##fo
##fobia
##foe
##foglio
##foka
##fokus
##fol
##fold
##folge
##folia
##folie
##folio
##folk
##folo
##fologi
##foma
##fon
##fona
##fond
##fondre
##fonds
##fone
##foni
##fonia
##fono
##fontein
##food
##foon
##foot
##for
##fora
##force
##forcing
##ford
##fordern
##forderung
##fore
##forest
##foria
##forio
##fork
##form
##forma
##format
##formation
##forme
##formeerd
##formen
##former
##formes
##formi
##forming
##forms
##formulier
##foro
##fors
##forschung
##fort
##forta
##forte
##forth
##forto
##foru
##forum
##forzare
##fos
##fot
##foto
##fou
##four
##fr
##fra
##frage
##fragen
##fragt
##fragten
##fram
##frame
##fran
##frat
##frau
##fre
##fred
##free
##frei
##freie
##freien
##fren
##freni
##fres
##fret
##freude
##freundlich
##freundlichkeit
##fri
##fria
##frica
##frie
##frika
##frir
##frist
##frit
##fro
##frod
##front
##frowy
##fru
##fruit
##frute
##fry
##fs
##fsa
##fsen
##fsha
##fsi
##fsiri
##fst
##ft
##fta
##ftan
##ftar
##fte
##ften
##fter
##ftet
##fti
##ftig
##ftige
##ftigen
##fton
##ftragte
##ftragten
##ftware
##fu
##fuga
##fuge
##fugt
##ful
##fula
##full
##fully
##fum
##fuma
##fun
##functie
##function
##fund
##funda
##funde
##fundi
##fundo
##fung
##funk
##funktion
##funktionen
##funzi
##fuo
##fur
##fura
##furi
##furt
##fus
##fusion
##futa
##futter
##fwa
##fy
##fya
##fyan
##fying
##fá
##fás
##fähigkeit
##fäll
##fälle
##fällen
##fällig
##fällt
##fè
##fé
##féra
##férer
##férez
##férica
##féricas
##férico
##féu
##fê
##fí
##fície
##fício
##fícios
##fís
##fò
##fón
##för
##förde
##förderung
##fört
##fügen
##fügt
##fühlen
##führen
##führer
##führt
##führung
##füllen
##füllt
##füm
##fı
##g
##ga
##gaa
##gaal
##gaan
##gaande
##gaar
##gaard
##gaat
##gab
##gaba
##gabe
##gaben
##gable
##gace
##gach
##gación
##gad
##gada
##gadas
##gade
##gader
##gadering
##gades
##gadi
##gado
##gador
##gadores
##gados
##gae
##gaf
##gage
##gah
##gai
##gain
##gair
##gais
##gaj
##gaja
##gaje
##gak
##gal
##gala
##galan
##gale
##galerie
##gali
##galit
##gall
##gallo
##galo
##galê
##gam
##gama
##gambi
##game
##gament
##gamento
##games
##gami
##gan
##gana
##ganas
##gand
##ganda
##gando
##gane
##gang
##gange
##gangen
##ganger
##gangers
##gangs
##gani
##gania
##ganisa
##gano
##gans
##gant
##gante
##ganti
##gants
##gao
##gap
##gar
##gara
##garan
##garantie
##gard
##garde
##gare
##garen
##garh
##gari
##garia
##garii
##garije
##garo
##gart
##garten
##gas
##gase
##gasi
##gast
##gasta
##gasyon
##gat
##gata
##gatan
##gate
##gated
##gates
##gati
##gating
##gation
##gato
##gator
##gats
##gatu
##gató
##gau
##gaus
##gava
##gave
##gaw
##gawa
##gawe
##gay
##gaya
##gayo
##gaz
##gaza
##gazi
##gazione
##gazioni
##gação
##gać
##gb
##gba
##gbar
##gbare
##gbe
##gbo
##gca
##gd
##gda
##gde
##gden
##gdon
##ge
##gea
##geal
##geance
##geant
##gear
##gearbeitet
##geb
##gebaut
##gebeeld
##geben
##geber
##gebied
##gebiet
##gebiete
##gebildet
##gebnisse
##gebouw
##gebracht
##gebroken
##gebruik
##gebung
##geco
##ged
##geda
##gedaan
##gede
##gedeelte
##gedra
##gedrag
##gedragen
##gee
##geeft
##geen
##gefallen
##gefordert
##gefunden
##gefühl
##geführt
##gegaan
##gegangen
##gegeben
##gegeven
##gegevens
##gegroeid
##geh
##geha
##gehaald
##gehalten
##gehan
##gehen
##gehend
##gehende
##gehou
##gehouden
##geht
##geir
##geist
##gek
##geka
##gekeer
##gekehrt
##gekom
##gekomen
##gel
##gela
##geladen
##gelan
##gelassen
##gelaten
##geld
##gele
##gelegd
##gelegen
##gelegenheid
##gelegt
##gelei
##geleid
##geleide
##gelen
##geler
##geleverd
##geli
##geliefert
##gelig
##gelii
##gelijk
##gelijke
##gelin
##gell
##geln
##gelo
##gelopen
##gels
##gelt
##gelung
##gelöst
##gem
##gemaakt
##gemaakte
##gemeinde
##gement
##gen
##gena
##genan
##genannten
##gence
##gencia
##gend
##genda
##gende
##gender
##gendo
##gene
##genen
##genes
##genesis
##genetic
##geng
##geni
##genic
##genis
##geno
##genoemde
##genomen
##genommen
##genoot
##genoten
##gens
##gent
##genta
##gente
##genti
##geny
##genza
##genze
##geo
##geon
##geordnete
##geordneten
##gepakt
##gepas
##gepi
##ger
##gera
##geran
##gere
##gerechnet
##gerecht
##gereicht
##geren
##geri
##gericht
##gerichte
##gern
##gero
##geroepen
##gers
##gert
##gery
##gerät
##geräte
##ges
##gesa
##geschaltet
##geschichte
##geschlagen
##geschnitten
##geschreven
##geschrieben
##geschäft
##gese
##gesehen
##gesellschaft
##gesetz
##gesetzt
##gesi
##gesinn
##gessen
##gestaan
##gestaltung
##gestel
##gesteld
##gestelde
##gestellt
##gestuurd
##gesucht
##get
##geta
##geteilt
##geti
##getragen
##getreden
##getreten
##getroffen
##getrokken
##gets
##gett
##gette
##getti
##geul
##geus
##geva
##geval
##gevallen
##gevat
##geven
##gevende
##gever
##gevers
##geving
##gevoerd
##gevonden
##gevraagd
##gewe
##gewende
##gewer
##gewerkt
##gewertet
##gewicht
##gewiesen
##gewone
##gewoon
##gewöhnlich
##gey
##gez
##geza
##geze
##gezet
##gezo
##gezogen
##gezonden
##gezwa
##gfa
##gg
##gga
##ggan
##gge
##ggen
##gger
##ggere
##gget
##ggi
##ggia
##ggiamento
##ggiare
##ggiata
##ggiate
##ggiato
##gging
##ggio
##ggle
##ggles
##ggo
##ggu
##ggy
##gh
##gha
##ghan
##ghar
##ghbours
##ghe
##ghed
##gheden
##gheid
##ghese
##ghet
##ghi
##ght
##ghter
##ghton
##gi
##gia
##giad
##giai
##gian
##giano
##giant
##giare
##gias
##giat
##gible
##gibt
##gic
##gica
##gical
##gich
##gico
##gid
##gida
##gide
##gidi
##gido
##gids
##gie
##giem
##gien
##gieny
##gier
##gieren
##gierig
##giers
##gies
##gieter
##gift
##gifte
##giften
##gig
##giga
##gige
##gigen
##gigkeit
##gii
##gik
##giko
##gil
##gila
##gilan
##gilant
##gilante
##gilar
##gile
##gili
##gill
##gilância
##gim
##gime
##gimento
##gimi
##gin
##gina
##ginan
##gindo
##gine
##ging
##gingen
##gings
##gini
##ginia
##ginio
##ginn
##gino
##gins
##gio
##gion
##gione
##giornata
##giorno
##gios
##gique
##giques
##gir
##gira
##giran
##gire
##giri
##girl
##girls
##giro
##girt
##gis
##gisi
##gisk
##gist
##gista
##gistan
##git
##gita
##giti
##gito
##gitt
##giu
##gium
##gius
##given
##giver
##giving
##giye
##giz
##gizi
##gió
##gią
##gj
##gja
##gje
##gka
##gkeit
##gko
##gl
##gla
##gland
##glar
##glas
##glass
##gle
##gled
##gleich
##gler
##gles
##gley
##gli
##glia
##gliano
##glice
##glich
##glichen
##glie
##glied
##glig
##glik
##gling
##glio
##glo
##glu
##gly
##glycemia
##gląd
##gma
##gmen
##gment
##gn
##gna
##gnac
##gnacja
##gnade
##gnado
##gnan
##gnano
##gnant
##gnar
##gnare
##gnas
##gnata
##gnati
##gnation
##gnato
##gne
##gnen
##gnent
##gner
##gnes
##gnese
##gnet
##gnete
##gneur
##gni
##gning
##gnir
##gnis
##gniti
##gno
##gnol
##gnola
##gnoli
##gnolo
##gnon
##gnons
##gnos
##gnostik
##gnu
##gnum
##gnus
##gny
##gné
##gnée
##gnąć
##go
##goa
##goan
##gob
##god
##goda
##gode
##godi
##godna
##godne
##godnienia
##godno
##goe
##goed
##goge
##gogi
##gogna
##gogue
##goi
##going
##gol
##gola
##gold
##gole
##golf
##goli
##golo
##gom
##gon
##gona
##gonal
##gone
##goneta
##gong
##goni
##gono
##gonzola
##goo
##good
##gooi
##gor
##gora
##gore
##gori
##gorie
##goro
##gory
##gos
##gosa
##got
##gota
##goten
##goti
##goto
##gott
##gou
##gov
##gowe
##goz
##goza
##gr
##gra
##graaf
##gracia
##gración
##grad
##grada
##grade
##grader
##gradi
##grado
##gradu
##graduate
##graf
##grafa
##grafi
##grafia
##grafica
##grafie
##grafii
##grafik
##grafo
##grafu
##grafía
##grafías
##gral
##grali
##gram
##grama
##gramm
##gramma
##grams
##gran
##grana
##grande
##grane
##grano
##grant
##grante
##grantes
##graph
##graphe
##graphic
##graphical
##graphie
##graphies
##graphique
##graphs
##graphy
##grar
##gras
##grass
##grati
##grau
##grave
##gre
##green
##gregation
##greifen
##gren
##grens
##grepen
##gres
##gri
##grid
##grif
##griff
##griffen
##grim
##grima
##grin
##gro
##groei
##groeid
##groep
##grond
##grote
##ground
##grounds
##group
##grove
##grown
##gru
##grund
##grunde
##grupp
##gruppe
##gruppen
##gry
##grywa
##gráfica
##gráficas
##gráfico
##gráficos
##grán
##größe
##gs
##gsa
##gse
##gsi
##gsm
##gst
##gsta
##gste
##gt
##gta
##gte
##gten
##gter
##gtes
##gti
##gto
##gton
##gtu
##gu
##gua
##gual
##guan
##guar
##guard
##guarda
##guas
##gub
##gubo
##guchi
##gud
##guda
##gue
##guei
##guem
##guen
##guendo
##guer
##guera
##guerra
##gues
##gueu
##guez
##gui
##guide
##guin
##guir
##guise
##guita
##guje
##guk
##gul
##gula
##gulan
##gular
##gulat
##gulation
##gule
##guli
##gull
##gulo
##gulu
##gum
##guma
##gumas
##gumi
##gun
##guna
##gung
##gungen
##guo
##gup
##gur
##gura
##gurat
##gure
##guren
##guri
##guridad
##guro
##gurt
##guru
##gus
##gusi
##gust
##guste
##gusto
##gut
##guta
##guts
##gué
##gués
##gve
##gwa
##gway
##gwe
##gwi
##gwood
##gy
##gya
##gyal
##gye
##gyn
##gyny
##gá
##gál
##gán
##gár
##gás
##gável
##gão
##gänge
##gänger
##gène
##gènes
##gère
##gères
##gé
##gée
##gées
##gén
##gés
##gét
##gê
##gência
##gênio
##gí
##gía
##gó
##gón
##gów
##gör
##görülen
##gún
##gü
##güenza
##gül
##gün
##gā
##gą
##gę
##gęs
##gı
##gın
##gł
##gła
##gło
##gły
##h
##ha
##haa
##haal
##haald
##haalde
##haan
##hab
##haba
##haben
##haber
##hac
##hach
##hachi
##hack
##had
##hada
##hadas
##hade
##hadi
##hado
##hados
##hae
##hafa
##hafi
##haft
##hafte
##haften
##hag
##haga
##hagen
##hagi
##hago
##hah
##hai
##hail
##hain
##hair
##hais
##haj
##hak
##haka
##hake
##hakeme
##haken
##haké
##hal
##hala
##halad
##halation
##halb
##halde
##hale
##halen
##haler
##hali
##halin
##haling
##hall
##halla
##halle
##hallen
##halo
##halt
##halten
##halter
##haltung
##ham
##hama
##hamba
##hame
##hamento
##hami
##hammer
##hamo
##hampton
##hamu
##han
##hana
##hand
##hande
##handel
##handelen
##handeling
##handeln
##handelt
##handi
##handle
##handlung
##hando
##hands
##hane
##hang
##hange
##hangen
##hangende
##hanger
##hangers
##hangin
##hangir
##hani
##hanie
##hann
##hanna
##hannes
##hanni
##hano
##hans
##hant
##hanu
##hany
##hao
##hap
##har
##hara
##harc
##hard
##hardt
##hare
##hares
##harf
##harge
##hari
##haria
##haring
##haro
##hart
##harto
##haru
##hary
##has
##hasa
##hase
##hasebe
##hash
##hasi
##hassa
##hast
##hastic
##hat
##hata
##hate
##hatha
##hattin
##hau
##hauer
##haul
##haus
##hausen
##haut
##hav
##hava
##have
##haven
##haw
##hawi
##hawk
##hawks
##hay
##haya
##haye
##haza
##hazi
##hazo
##hb
##hbar
##hc
##hd
##hda
##hde
##hden
##hdet
##he
##hea
##head
##heads
##hear
##hearsal
##heart
##heat
##heater
##heb
##hebbende
##heben
##hebung
##hecer
##heci
##hecido
##hecimento
##hecy
##hed
##hede
##heden
##heder
##hee
##heel
##heen
##heer
##heet
##hef
##heffing
##heg
##hege
##hei
##heid
##heil
##heilu
##heim
##heimer
##heira
##heiro
##heiros
##heit
##heita
##heiten
##heitlich
##heitliche
##heitlichen
##heizung
##hej
##hek
##heke
##hel
##hela
##held
##helden
##hele
##helfen
##heli
##hell
##helle
##helm
##helo
##hely
##hem
##hema
##hemat
##hemi
##hen
##hena
##hend
##hendi
##hendo
##hene
##heng
##heni
##hension
##hent
##hente
##heo
##hep
##her
##hera
##herapie
##herapy
##herché
##here
##heri
##heria
##herical
##herin
##herit
##heritance
##hero
##herr
##hers
##herty
##heru
##hes
##hesa
##hese
##heses
##hesi
##hesia
##hesis
##hesive
##het
##heta
##hetamine
##hete
##heten
##heter
##heti
##hetic
##hetik
##hetta
##hette
##hetti
##hetto
##heu
##heur
##heureux
##heus
##hev
##heve
##hew
##hey
##hez
##hga
##hh
##hhi
##hi
##hia
##hian
##hiana
##hib
##hibe
##hibició
##hibit
##hibiti
##hibo
##hic
##hical
##hice
##hicul
##hicule
##hid
##hida
##hide
##hidi
##hie
##hiel
##hield
##hien
##hier
##hies
##hift
##hig
##higi
##hih
##hii
##hik
##hika
##hiki
##hiko
##hil
##hila
##hilat
##hile
##hilfe
##hili
##hill
##hille
##hills
##hilo
##him
##hima
##himo
##hin
##hina
##hinde
##hindi
##hine
##hing
##hinga
##hini
##hinka
##hino
##hio
##hion
##hip
##hips
##hique
##hir
##hira
##hire
##hiri
##hirli
##hiro
##hirt
##his
##hisa
##hisar
##hisi
##hiso
##hist
##hista
##histas
##histe
##historia
##historie
##hit
##hita
##hite
##hiti
##hitzen
##hiu
##hiv
##hiva
##hive
##hiy
##hiya
##hiye
##hiza
##hiş
##hk
##hka
##hkan
##hke
##hki
##hko
##hku
##hl
##hla
##hlan
##hlar
##hlas
##hle
##hlen
##hler
##hli
##hlich
##hlin
##hlo
##hlt
##hlu
##hlung
##hm
##hma
##hman
##hme
##hmen
##hment
##hmet
##hmi
##hmin
##hmt
##hmu
##hmus
##hn
##hna
##hne
##hnen
##hner
##hnete
##hni
##hno
##hnt
##hnu
##hnung
##hnungen
##ho
##hoa
##hob
##hock
##hod
##hode
##hodi
##hodna
##hodne
##hodni
##hodu
##hoe
##hoek
##hof
##hofer
##hoff
##hofi
##hog
##hogo
##hoi
##hoid
##hok
##hol
##hola
##hold
##holder
##holders
##hole
##holen
##holes
##holi
##holl
##holm
##holo
##hologie
##hology
##holt
##holz
##hom
##homa
##home
##homme
##homo
##hon
##hona
##hone
##hong
##honi
##hono
##hony
##hoo
##hood
##hoof
##hoon
##hoop
##hoot
##hop
##hope
##hopedic
##hor
##hora
##hore
##hori
##horn
##horo
##hors
##horse
##horst
##hos
##hosa
##hose
##hosi
##hoso
##host
##hot
##hota
##hotel
##hotels
##hoto
##hou
##houd
##houden
##houder
##houders
##houding
##houdt
##hound
##house
##houses
##hout
##hov
##hove
##hoven
##how
##hoz
##hp
##hr
##hra
##hrad
##hral
##hrax
##hre
##hreb
##hren
##hri
##hrib
##hrig
##hrin
##hris
##hrn
##hro
##hronous
##hropologie
##hropology
##hrt
##hrte
##hry
##hs
##hsan
##hse
##hsin
##hst
##ht
##hta
##htar
##hte
##hten
##hter
##hti
##htin
##hto
##hton
##htri
##htu
##hu
##hua
##huan
##hub
##hud
##hue
##hug
##huga
##huh
##hui
##huis
##huizen
##hul
##hula
##hull
##hulp
##hum
##huma
##human
##humana
##hume
##humi
##humo
##hun
##hung
##hungen
##hunter
##hur
##hura
##hure
##huri
##hurst
##hus
##huse
##husela
##hut
##huur
##huv
##huwd
##huza
##hva
##hver
##hvi
##hwa
##hwe
##hy
##hya
##hyb
##hyd
##hydrate
##hydraten
##hye
##hyl
##hylene
##hys
##hyst
##hyt
##hz
##há
##hán
##ház
##hã
##hão
##hä
##hält
##hän
##händler
##hänge
##hängen
##hängt
##här
##häuser
##häusern
##hèque
##hère
##hète
##hé
##hée
##hérence
##hérique
##hê
##hí
##hî
##hó
##hór
##höhe
##hör
##hören
##hörige
##hört
##hú
##hús
##hā
##hşi
##i
##ia
##iaal
##iaan
##iable
##iac
##iaceae
##iach
##iad
##iada
##iado
##iados
##iae
##iage
##iah
##iai
##iais
##iają
##iak
##iaka
##iako
##ial
##iale
##iales
##iali
##iam
##iama
##iame
##iami
##iamo
##ian
##iana
##ianas
##iando
##iane
##iani
##iania
##iano
##ianos
##ians
##iant
##ianta
##iante
##ianti
##iantis
##ianto
##iany
##iar
##iara
##iare
##iari
##iary
##ias
##iasa
##iasi
##iasis
##iat
##iata
##iate
##iated
##iati
##iation
##iato
##iatu
##iau
##iaux
##iava
##iação
##iać
##iał
##iała
##ib
##iba
##iban
##ibar
##ibat
##ibe
##ibel
##iben
##iber
##ibi
##ibida
##ibil
##ibile
##ibili
##ibilidad
##ibilidade
##ibility
##ibilità
##ibilité
##ibin
##ibindo
##ibir
##ibição
##ible
##ibles
##ibo
##ibol
##ibon
##ibre
##ibri
##ibs
##ibt
##ibu
##ibus
##ic
##ica
##icación
##icae
##icais
##ical
##ically
##icam
##icamente
##icami
##ican
##icar
##icare
##icaro
##icas
##icat
##ication
##icação
##ice
##icer
##ices
##ich
##icha
##iche
##ichen
##icher
##icherung
##ichi
##ichnet
##ichnung
##icht
##ichte
##ichten
##ici
##icia
##ician
##icians
##iciar
##icide
##icides
##icie
##icien
##icillin
##icin
##icina
##icing
##icio
##iciones
##icis
##icit
##ició
##ición
##ick
##icke
##icken
##icker
##icki
##ickt
##ico
##icom
##icon
##icons
##icos
##icot
##ics
##ict
##iction
##icu
##icul
##icum
##icus
##icy
##icz
##icza
##iczna
##iczne
##icznego
##icznej
##icznie
##iczny
##icznych
##icí
##id
##ida
##idad
##idade
##idades
##idae
##idal
##idan
##idant
##idas
##idata
##idation
##iday
##idd
##iddel
##ide
##idea
##ided
##ideen
##idek
##idel
##iden
##idence
##idens
##ident
##ider
##idere
##ides
##idet
##idge
##idh
##idi
##idia
##idian
##idiana
##idiano
##idie
##idien
##idig
##idige
##idigt
##idin
##idina
##idine
##iding
##idio
##idiol
##idir
##idis
##idit
##idium
##ido
##idon
##idor
##idos
##idra
##ids
##idu
##idung
##idus
##idwa
##idwe
##idy
##idya
##idzo
##idão
##idí
##ie
##ieb
##iec
##iece
##iech
##iecie
##iecka
##ied
##ieda
##iede
##ieden
##iedz
##iedza
##ief
##iegen
##iego
##iegt
##iei
##iej
##iek
##ieka
##ieke
##ieki
##ieku
##iel
##iela
##ield
##iele
##ieles
##ieli
##iell
##ielle
##ielles
##iels
##ielt
##iem
##iema
##ieme
##ien
##iena
##ience
##iend
##ienda
##iende
##iendo
##iene
##ienen
##ieni
##ienia
##ienie
##ieniem
##iening
##ieniu
##ienne
##iennent
##iens
##iensis
##ienst
##ient
##iente
##ientes
##ienti
##iento
##ients
##ienu
##ienza
##iep
##ier
##iera
##ieran
##ierania
##ieranie
##iere
##ieren
##ieri
##iero
##ieron
##ieros
##ierre
##iers
##iert
##ierte
##ierten
##ierto
##ierung
##ierungen
##ierz
##ies
##iese
##iest
##iet
##ieta
##iete
##ieten
##ieties
##ieto
##iets
##ieu
##ieur
##ieux
##ieve
##iew
##iewe
##iez
##ießen
##ießt
##ień
##ieść
##if
##ifa
##ife
##ifen
##ifer
##ifera
##iff
##ifi
##ifiant
##ific
##ifica
##ificación
##ificada
##ificados
##ification
##ificazione
##ificação
##ifice
##ificou
##ifie
##ified
##ifier
##ifies
##ifik
##ifika
##ifikat
##ifique
##ifié
##ifo
##ifs
##ift
##ifu
##ify
##ig
##iga
##igado
##igan
##igas
##igat
##igd
##igde
##ige
##igean
##igel
##igen
##igend
##iger
##igera
##igers
##igert
##iges
##igh
##igheden
##igheid
##ight
##ighty
##igi
##igia
##igido
##igieux
##igil
##igin
##iging
##igio
##igir
##igkeit
##igkeiten
##igla
##igli
##iglia
##iglione
##ign
##igna
##ignan
##ignant
##igne
##igned
##igni
##ignment
##igno
##ignon
##igny
##igo
##igon
##igos
##igre
##igs
##igt
##igte
##igu
##iguar
##igue
##igung
##igé
##ih
##iha
##ihe
##ihi
##iht
##ihu
##ii
##iid
##iin
##iis
##iit
##ij
##ija
##ijan
##ijd
##ije
##ijen
##ijer
##iji
##ijk
##ijke
##ijn
##ijo
##ijs
##ijski
##ijte
##ijão
##iją
##ik
##ika
##ikaj
##ikal
##ikan
##ikar
##ikas
##ikat
##ikati
##ikatu
##ike
##iken
##iker
##iket
##ikh
##iki
##ikin
##ikir
##ikke
##ikki
##ikli
##iko
##ikolo
##ikom
##ikon
##ikos
##ikować
##iks
##iksa
##ikt
##ikti
##iku
##ikum
##ikums
##ikus
##ików
##il
##ila
##ilación
##ilada
##ilak
##ilan
##ilana
##iland
##ilar
##ilare
##ilas
##ilasyon
##ilat
##ilata
##ilation
##ilator
##ilay
##ild
##ilda
##ilder
##ildi
##ildiği
##ildo
##ile
##ilebilir
##ilecek
##ilecektir
##iled
##ileg
##ilen
##iler
##ilerek
##ileri
##iles
##ilg
##ilha
##ili
##ilia
##iliana
##ilidad
##ilidade
##ilie
##ilien
##iligen
##ilii
##ilija
##ilik
##ilika
##ilin
##iline
##iling
##ilio
##ilion
##ilip
##ilir
##ilis
##ilisa
##ilisi
##ilist
##ilit
##ilita
##ilitació
##ilitar
##ilitasyon
##ilitat
##ilitation
##ilite
##iliti
##ility
##ilité
##iliu
##iliyor
##ilj
##ill
##illa
##illage
##illante
##illas
##illation
##ille
##illed
##illen
##iller
##illes
##illi
##illing
##illion
##illo
##illon
##illos
##illustration
##illy
##illé
##illée
##ilm
##ilma
##ilmek
##ilmektedir
##ilmente
##ilmesi
##ilmesini
##ilmiş
##ilmiştir
##ilne
##ilnik
##ilno
##ilo
##ilon
##ils
##ilt
##ilte
##ilu
##ilul
##ilun
##ilus
##ily
##ilè
##ilí
##im
##ima
##imada
##imal
##iman
##imar
##imas
##imat
##imati
##imation
##imba
##imbo
##imci
##ime
##imek
##imen
##iment
##imentale
##imentazione
##imenti
##imento
##imentos
##iments
##imer
##imes
##imet
##imetro
##imh
##imi
##imia
##imid
##imiento
##imin
##imine
##imini
##imir
##imira
##imis
##imit
##imiz
##imización
##imize
##imizin
##imka
##imme
##immel
##immung
##imo
##imon
##imos
##impa
##ims
##imu
##imus
##imy
##in
##ina
##inac
##inació
##inada
##inado
##inados
##inai
##inal
##inale
##inam
##inami
##inan
##inance
##inant
##inante
##inanti
##inar
##inare
##inaria
##inas
##inasyon
##inat
##inata
##inate
##inated
##inati
##inating
##ination
##inato
##inator
##inators
##inau
##inaw
##inazione
##inação
##inc
##ince
##inch
##inci
##inció
##inco
##inct
##inction
##ind
##inda
##inde
##inden
##inder
##indi
##inding
##indo
##indu
##industrie
##ine
##inea
##inean
##ined
##inei
##inejad
##inek
##inem
##inement
##inen
##inent
##iner
##inera
##ines
##iness
##inet
##inete
##ineti
##infarkt
##info
##informatie
##information
##informationen
##ing
##inga
##ingang
##ingar
##ingas
##inge
##ingen
##inger
##ingham
##ingi
##ingia
##ingly
##ingo
##ingon
##ingos
##ings
##ingt
##ington
##ingu
##inha
##inhas
##inho
##inhos
##ini
##inia
##iniam
##inie
##inig
##inigt
##inin
##inina
##ining
##inio
##inir
##inis
##inist
##init
##inite
##inito
##inity
##iniu
##inium
##iniz
##inizi
##inje
##ink
##inka
##inken
##inki
##inko
##inkt
##inn
##inna
##inne
##innen
##inni
##innin
##ino
##inom
##inos
##inot
##inou
##inq
##ins
##insa
##inse
##inska
##inski
##int
##inta
##intas
##inte
##inted
##inten
##inth
##inthe
##inti
##into
##inton
##intos
##intosh
##ints
##intu
##inu
##inua
##inum
##inus
##inut
##inwa
##iny
##inya
##inze
##inzi
##inária
##inário
##inção
##inè
##iné
##iní
##iną
##inę
##io
##ioa
##ioen
##iog
##iol
##iola
##ioli
##iologi
##iologia
##iology
##iom
##ion
##iona
##ionage
##ionais
##ional
##ionale
##ionali
##ionar
##ionario
##ionate
##ione
##ioned
##ionen
##ioner
##iones
##ioni
##iono
##ions
##iony
##ionych
##ior
##ios
##iosa
##ioso
##iosła
##iot
##iota
##iou
##ious
##ioz
##ip
##ipa
##ipan
##ipar
##ipat
##ipata
##ipe
##ipel
##ipelago
##iper
##ipha
##ipi
##ipia
##ipit
##ipo
##ipos
##ippe
##ippen
##ips
##ipta
##ipto
##ipu
##iq
##ique
##iques
##ir
##ira
##iraa
##iración
##irada
##irai
##iral
##iram
##iramente
##iran
##irang
##irani
##irano
##irant
##irante
##irar
##iras
##irat
##irate
##irateur
##irati
##irc
##ird
##irde
##irdek
##irdi
##ire
##irea
##irect
##iren
##ires
##irge
##iri
##iria
##irie
##irien
##irilir
##irim
##irin
##iring
##irip
##irir
##iris
##iriti
##irito
##iriza
##irió
##irk
##irke
##irl
##irling
##irm
##irma
##irme
##irne
##iro
##iron
##iros
##irs
##irse
##irt
##irti
##iru
##irus
##iry
##irà
##irá
##iré
##irí
##is
##isa
##isada
##isage
##isan
##isance
##isant
##isar
##isario
##isas
##isat
##isateur
##isatie
##isation
##isations
##isc
##isca
##iscar
##isce
##isch
##ische
##ischen
##ischer
##isches
##ischt
##isci
##iscia
##isco
##iscono
##isd
##ise
##iseach
##ised
##iseer
##iseerde
##isel
##isele
##iselle
##isen
##iser
##isere
##iseren
##isering
##ises
##isg
##ish
##isha
##ished
##ishi
##ishing
##isi
##isia
##isid
##isie
##isieren
##isiert
##isierung
##isin
##isina
##ising
##isini
##isio
##ision
##isip
##isir
##isis
##isissa
##isit
##isión
##isje
##isjon
##isk
##iska
##iskan
##iske
##iski
##isko
##isku
##islatura
##isle
##isli
##ism
##isma
##ismatic
##isme
##ismen
##ismes
##ismi
##ismo
##ismos
##ismu
##ismus
##iso
##ison
##isper
##isphere
##iss
##issa
##issant
##isse
##issement
##issen
##issent
##isser
##isses
##isseur
##issi
##issie
##issima
##issimo
##ission
##isson
##isst
##issões
##ist
##ista
##istan
##istas
##iste
##isten
##istent
##ister
##istes
##isti
##istic
##istica
##istik
##istike
##istiku
##istin
##isting
##istir
##istisch
##istische
##istischen
##istiyan
##istle
##istleblower
##isto
##istos
##istra
##istre
##ists
##istu
##isty
##isté
##istí
##isu
##iswa
##iswe
##isy
##isyon
##isz
##isé
##isée
##isées
##isés
##isí
##isões
##it
##ita
##itable
##itació
##itada
##itai
##itaire
##itak
##ital
##itali
##itam
##itan
##itana
##itando
##itant
##itante
##itar
##itare
##itari
##itariamente
##itarian
##itario
##itas
##itat
##itate
##itati
##itation
##itatis
##itative
##itato
##itatu
##itau
##itação
##itch
##ite
##ited
##itei
##iteit
##iteiten
##itek
##itektur
##itel
##itele
##itement
##iten
##itend
##iter
##iteri
##iteria
##iterio
##itero
##ites
##itet
##iteten
##itetto
##itettu
##itettura
##ith
##itha
##ithe
##ithi
##iti
##itia
##itib
##itic
##itie
##ities
##itigen
##itigt
##itik
##itin
##iting
##itio
##ition
##itis
##itish
##itiva
##itive
##itivi
##itivity
##itje
##itli
##ito
##iton
##itor
##itore
##itori
##itos
##itou
##itr
##itra
##itre
##itro
##its
##itsa
##itse
##itt
##itta
##ittal
##itte
##ittel
##itten
##itter
##itti
##itting
##ittu
##itu
##itua
##itucio
##itució
##itud
##itude
##itum
##itung
##itur
##itura
##iture
##itus
##itut
##itution
##ituído
##ity
##itz
##itza
##itze
##itzen
##ità
##itária
##itário
##itão
##itä
##ität
##itäten
##itè
##ité
##itério
##ités
##itą
##itę
##iu
##ium
##iung
##iure
##ius
##iuta
##iuti
##iuto
##iv
##iva
##ivad
##ival
##ivali
##ivamente
##ivan
##ivar
##ivare
##ivas
##ivat
##ivate
##ivati
##ivation
##ive
##ived
##ivel
##iven
##iver
##ivere
##ives
##ivi
##ivia
##ividad
##ividade
##iving
##ivis
##ivisia
##ivista
##ivit
##iviteit
##ivity
##ività
##ivité
##ivo
##ivos
##ivu
##ivé
##iw
##iwa
##iwan
##iwani
##iwe
##iwi
##iwn
##iwo
##iwum
##ix
##ixa
##ixe
##ixen
##ixes
##ixi
##ixo
##ixu
##iy
##iya
##iyah
##iyak
##iyan
##iyar
##iyası
##iyat
##iyati
##iydi
##iye
##iyet
##iyete
##iyeti
##iyey
##iyi
##iyle
##iyo
##iyon
##iyor
##iz
##iza
##izaciones
##ización
##izacja
##izacje
##izacji
##izację
##izada
##izadas
##izado
##izador
##izados
##izam
##izan
##izando
##izar
##izare
##izas
##izasyon
##izat
##ization
##ização
##izações
##izde
##ize
##ized
##izen
##izer
##izi
##izia
##izie
##izin
##izing
##izio
##izione
##izioni
##izlik
##izm
##izma
##izme
##izmi
##izmin
##izmu
##izo
##izon
##izou
##izowane
##izten
##izu
##izuje
##izun
##izz
##izza
##izzare
##izzata
##izzati
##izzato
##izzazione
##izzi
##izó
##ià
##ián
##iás
##ião
##iä
##iç
##iça
##içi
##ição
##ições
##ième
##ière
##ières
##ié
##iée
##iés
##ië
##iële
##iërs
##ið
##iña
##iño
##ió
##ión
##iós
##iú
##ią
##iąc
##iąg
##iąt
##iąteczne
##iązania
##ić
##ič
##ię
##ięte
##iętej
##ięto
##ięty
##iği
##iğim
##iğini
##ił
##iła
##iłek
##iło
##iń
##iści
##iş
##işen
##işi
##işle
##işmiş
##işti
##iştirme
##iż
##iża
##iž
##iș
##j
##ja
##jaa
##jaan
##jaar
##jab
##jabi
##jable
##jac
##jach
##jaci
##jaciel
##jaciela
##jack
##jad
##jada
##jadi
##jado
##jados
##jah
##jahr
##jai
##jaj
##jak
##jaka
##jaki
##jal
##jala
##jale
##jali
##jalista
##jalizuje
##jall
##jalna
##jalne
##jalnej
##jalni
##jalno
##jalny
##jalnych
##jam
##jama
##jamento
##jami
##jamiento
##jamin
##jan
##jana
##jand
##jande
##jandi
##jando
##jane
##jang
##jani
##janie
##jano
##jans
##jant
##jante
##janti
##janza
##jar
##jara
##jare
##jari
##jarige
##jaro
##jarse
##jas
##jasi
##jast
##jat
##jata
##jati
##jau
##jav
##java
##jave
##jaw
##jawisko
##jay
##jazd
##jazdu
##jazne
##jazny
##jb
##jc
##jca
##jce
##jci
##jczycy
##jd
##jda
##jde
##jden
##jdi
##jds
##jdu
##jdzie
##jdą
##jdę
##jdź
##je
##jea
##jean
##jeb
##jechać
##jechał
##ject
##jected
##jector
##jed
##jedi
##jee
##jef
##jeg
##jeh
##jei
##jeita
##jek
##jekt
##jektion
##jel
##jeli
##jem
##jemne
##jemnie
##jemy
##jen
##jena
##jenci
##jene
##jeng
##jeni
##jenia
##jenie
##jenige
##jenigen
##jeno
##jent
##jer
##jera
##jeras
##jere
##jeren
##jeri
##jern
##jerno
##jero
##jeros
##jers
##jeru
##jes
##jesa
##jest
##jestracja
##jesz
##jet
##jeta
##jete
##jeti
##jett
##jev
##jeva
##jevi
##jevo
##jew
##jezd
##jeździe
##jeżdża
##jf
##jh
##jha
##ji
##jia
##jian
##jiang
##jib
##jica
##jid
##jie
##jien
##jiga
##jik
##jika
##jil
##jim
##jima
##jimo
##jin
##jina
##jing
##jini
##jir
##jira
##jis
##jista
##jit
##jiyo
##jja
##jk
##jka
##jke
##jki
##jko
##jkt
##jku
##jl
##jla
##jle
##jma
##jme
##jmie
##jmowane
##jmowania
##jmowanie
##jmować
##jmu
##jmuje
##jmy
##jn
##jna
##jne
##jnego
##jnej
##jnen
##jner
##jni
##jnice
##jnie
##jnik
##jnika
##jning
##jno
##jnse
##jny
##jnych
##jnym
##jną
##jo
##joa
##job
##joch
##joe
##joen
##joer
##jok
##jol
##jola
##jom
##jomi
##jon
##jona
##jonali
##jonalne
##jonalną
##jonat
##jone
##joner
##jong
##jonge
##joni
##jono
##jons
##jonu
##joo
##jor
##jora
##jorat
##jord
##joro
##jos
##josa
##jot
##jote
##jou
##journal
##jov
##joy
##jp
##jr
##jrzenia
##jrzeć
##js
##jse
##jska
##jski
##jskich
##jskie
##jskiego
##jskiej
##jskim
##jsko
##jsku
##jską
##jst
##jsza
##jsze
##jszego
##jszej
##jszy
##jszych
##jszą
##jt
##jta
##jte
##jtek
##jting
##jto
##ju
##jua
##juan
##jub
##juba
##jud
##jude
##judi
##judice
##jui
##juist
##juje
##juk
##jul
##jum
##jun
##jung
##junk
##junta
##jur
##jura
##jure
##juri
##juru
##jus
##just
##justa
##jut
##jutan
##jv
##jve
##jven
##jver
##jwe
##jwi
##jy
##jya
##jye
##jylland
##jz
##já
##ján
##jás
##jä
##jährige
##jährigen
##jét
##jí
##jó
##jón
##jós
##jów
##jö
##jön
##jör
##jø
##jú
##júci
##ją
##jąc
##jąca
##jące
##jącego
##jącej
##jąco
##jący
##jących
##jącym
##jącą
##jątkowa
##jął
##ję
##jęcie
##jęciu
##jęte
##jı
##jścia
##jście
##jściu
##jść
##k
##kW
##ka
##kaa
##kaal
##kaan
##kaart
##kaarten
##kaas
##kaat
##kab
##kabel
##kace
##kach
##kacja
##kacji
##kad
##kada
##kade
##kader
##kadi
##kadir
##kado
##kaf
##kag
##kage
##kah
##kaha
##kai
##kaise
##kaj
##kak
##kaka
##kake
##kal
##kala
##kalan
##kalar
##kalat
##kalde
##kale
##kali
##kalise
##kalkula
##kalla
##kalli
##kalo
##kalt
##kam
##kama
##kame
##kament
##kamer
##kamera
##kamers
##kami
##kamp
##kampen
##kampf
##kan
##kana
##kanan
##kand
##kanda
##kande
##kandida
##kane
##kang
##kani
##kania
##kanie
##kanker
##kano
##kans
##kant
##kanta
##kante
##kanten
##kantie
##kanto
##kantoor
##kany
##kanı
##kap
##kapa
##kapan
##kapi
##kapital
##kappe
##kar
##kara
##kard
##kare
##kari
##karlar
##karna
##kart
##karta
##karte
##karten
##karzy
##karı
##kas
##kasa
##kasi
##kasse
##kassen
##kast
##kasta
##kasten
##kasti
##kasyon
##kat
##kata
##kate
##kates
##kati
##kation
##kato
##katt
##katu
##katur
##katura
##katzen
##kau
##kaus
##kav
##kava
##kave
##kaw
##kawa
##kawie
##kawszych
##kay
##kaya
##kaz
##kaza
##kaze
##kazi
##kazu
##kazuje
##kazy
##kać
##kał
##kbo
##kbps
##kce
##kcie
##kcja
##kcje
##kcji
##kcją
##kcję
##kda
##kdo
##ke
##ked
##kede
##kedi
##kee
##keeper
##keeping
##keer
##keet
##kehr
##kei
##keit
##keiten
##kej
##kek
##kel
##kela
##kele
##kelele
##kelen
##kelet
##keletal
##keleti
##keli
##kelijk
##kelijke
##kell
##kella
##keln
##kelo
##kels
##kelt
##kelti
##kem
##kema
##keme
##ken
##kena
##kence
##kend
##kende
##kender
##kene
##keng
##keni
##kenni
##kenntnisse
##kens
##kent
##kep
##ker
##kera
##kere
##keren
##kerheid
##keri
##kering
##kerk
##kern
##kerne
##kers
##kert
##kes
##kese
##kesi
##ket
##keta
##kete
##keten
##keti
##kets
##kett
##kette
##ketten
##keur
##keurig
##keus
##kev
##key
##keye
##keş
##kg
##kh
##kha
##khara
##khe
##khi
##kho
##khu
##ki
##kia
##kian
##kib
##kich
##kick
##kid
##kida
##kide
##kie
##kiego
##kiej
##kiel
##kiem
##kien
##kies
##kiet
##kiewicz
##kig
##kige
##kih
##kii
##kiin
##kijken
##kik
##kil
##kile
##kiler
##kili
##kill
##kille
##kilo
##kim
##kima
##kime
##kimi
##kimin
##kimine
##kimo
##kin
##kina
##kind
##kinder
##kine
##kinen
##king
##kini
##kinio
##kinlik
##kino
##kins
##kinti
##kios
##kip
##kir
##kirch
##kirche
##kirchen
##kire
##kiri
##kis
##kisi
##kista
##kistan
##kisten
##kit
##kite
##kius
##kiwa
##kiya
##kiye
##kiz
##kja
##kje
##kjes
##kk
##kka
##kkaan
##kkale
##kkan
##kkar
##kke
##kkel
##kken
##kker
##kket
##kki
##kkien
##kking
##kko
##kku
##kkur
##kkönen
##kl
##kla
##klad
##klager
##klama
##klamo
##klan
##klanan
##klar
##klara
##klare
##klari
##klaring
##kları
##klarını
##klas
##klasi
##klasse
##klassen
##kle
##kleding
##klene
##kler
##kleri
##klerini
##kles
##kless
##klet
##kley
##kli
##klich
##klichen
##klik
##klim
##klima
##klimat
##klin
##kling
##klip
##klis
##klius
##klo
##klon
##klop
##klos
##klu
##klub
##klus
##klärung
##klą
##klę
##klı
##klık
##km
##kma
##kman
##kmat
##kmi
##kn
##kna
##knat
##kne
##kni
##knie
##knik
##knięcia
##knięcie
##knięty
##kno
##knot
##knąć
##ko
##koa
##kob
##koch
##kod
##kode
##kodni
##koe
##koek
##koers
##kog
##koho
##koi
##koj
##koja
##koje
##kojn
##kok
##koka
##koki
##koko
##kol
##kola
##kolan
##kole
##koli
##kolle
##kolny
##kolnych
##kolo
##kolog
##kologi
##koloji
##kolu
##kolwiek
##kom
##koma
##koman
##kombe
##kome
##komen
##komende
##koming
##komis
##komm
##komma
##kommande
##komme
##kommen
##kommende
##kommer
##kommt
##komo
##komst
##komsten
##komt
##komu
##kon
##kona
##konan
##kond
##kondi
##kone
##konen
##konferenz
##kong
##koni
##kono
##konomi
##kont
##kontakt
##kontakte
##konto
##kontrol
##kontroll
##konu
##kony
##koo
##kool
##koop
##kop
##kopa
##kopf
##kopi
##kopy
##kor
##kora
##kord
##kore
##korn
##koro
##kors
##kort
##korte
##kos
##kosa
##kose
##kosi
##kost
##kosten
##kot
##kota
##koti
##kotik
##kott
##kou
##kov
##kova
##kovi
##kovic
##ković
##kovo
##kovski
##kovsky
##kow
##kowa
##kowana
##kowane
##kowania
##kowanie
##kowany
##kowanych
##kować
##kowe
##kowego
##kowej
##kowie
##kowo
##kowski
##kowy
##kowych
##kowym
##kową
##koy
##koz
##koza
##koze
##kozi
##koła
##kość
##kpa
##kpo
##kr
##kra
##kracht
##krachten
##kracji
##kraft
##krag
##krak
##kram
##kran
##krar
##krasi
##krat
##kraut
##kre
##krebs
##kreis
##krem
##kret
##kri
##krieg
##krim
##kring
##krip
##kripsi
##kript
##kris
##krise
##krisen
##krishna
##krit
##kriti
##kro
##krotnie
##kru
##kry
##kryf
##kräfte
##ks
##ksa
##ksamkeit
##kse
##ksen
##ksi
##ksid
##ksin
##ksir
##ksis
##ksit
##ksiyon
##ksiyonu
##ksiz
##kso
##kspor
##kst
##ksta
##ksti
##kstu
##ksu
##ksy
##kt
##kta
##ktadır
##ktan
##kte
##ktedir
##kten
##kter
##ktet
##kteur
##kti
##ktif
##ktige
##ktik
##ktion
##ktionen
##ktis
##ktiv
##ktive
##kto
##kton
##ktor
##ktori
##kts
##ktu
##ktur
##ktura
##ktyczny
##ktycznych
##ktör
##ku
##kua
##kub
##kuba
##kuda
##kuh
##kui
##kuin
##kuj
##kuje
##kul
##kula
##kulan
##kular
##kule
##kull
##kulo
##kult
##kultur
##kultura
##kulturo
##kulu
##kum
##kuma
##kums
##kumu
##kun
##kunde
##kunden
##kundig
##kundige
##kundigen
##kung
##kungen
##kunst
##kuo
##kup
##kupa
##kupi
##kur
##kura
##kure
##kuri
##kuro
##kurrent
##kurrenten
##kurs
##kurt
##kuru
##kurven
##kus
##kusa
##kust
##kusu
##kut
##kutan
##kute
##kuti
##kuu
##kuum
##kuwa
##kva
##kve
##kvi
##kvo
##kwa
##kwaa
##kwaliteit
##kwam
##kwan
##kwe
##kwi
##kwo
##ky
##kya
##kyan
##kyne
##kyo
##ká
##kä
##kän
##käs
##käufe
##kça
##kçe
##ké
##kí
##kî
##kó
##kód
##ków
##kö
##kör
##körper
##köy
##kú
##kü
##kül
##kün
##kür
##küste
##ký
##kā
##ką
##kąd
##kę
##kı
##kım
##kın
##kır
##kład
##kū
##l
##la
##laa
##laag
##laagd
##laan
##laang
##laar
##laars
##laas
##laat
##lab
##laba
##laban
##label
##labilecek
##labilir
##lable
##lac
##laca
##lacak
##lacaktır
##lacağı
##lacağını
##lace
##laced
##lach
##lacha
##lacht
##lachta
##laci
##lacio
##lación
##lacja
##lacji
##lack
##lacz
##lad
##lada
##ladan
##ladas
##lade
##ladem
##laden
##lader
##lades
##ladi
##lado
##lador
##ladores
##lados
##ladu
##lady
##ladá
##ladı
##ladık
##ladım
##ladığı
##ladığını
##lae
##laf
##lag
##laga
##lage
##lagen
##lager
##laggio
##lagi
##lago
##lags
##lagt
##lagte
##lagu
##lah
##lahan
##lai
##laid
##laim
##laimed
##lain
##laina
##laine
##lainen
##lair
##laire
##lais
##laise
##lait
##laj
##lak
##laka
##lakat
##lake
##laken
##laki
##lako
##laku
##lal
##lala
##lale
##lali
##lalo
##lalte
##lam
##lama
##lamada
##lamak
##lamalar
##lamaları
##laman
##lamar
##laması
##lamat
##lamation
##lamaya
##lamayı
##lamaz
##lame
##lament
##lamento
##lami
##lamlı
##lamo
##lamos
##lamp
##lampe
##lams
##lamu
##lamus
##lamış
##lan
##lana
##lanabilir
##lanacak
##lanacaktır
##lanamaz
##lanan
##lanana
##lanarak
##lanc
##lance
##lanci
##land
##landa
##lande
##landen
##lander
##landesa
##landet
##landi
##landia
##lando
##lands
##landschaft
##landse
##landu
##landés
##landı
##landıran
##landırma
##landırılması
##landırılır
##landırır
##landığı
##landığını
##lane
##lang
##langa
##lange
##langen
##langer
##langi
##langt
##lani
##lania
##lanie
##lank
##lanma
##lanmak
##lanmaktadır
##lanmalıdır
##lanmamış
##lanması
##lanmasına
##lanmasını
##lanmaya
##lanmaz
##lanmış
##lanmıştır
##lann
##lano
##lans
##lansa
##lant
##lanta
##lantar
##lante
##lanti
##lanto
##lants
##lanu
##lany
##lanzen
##lané
##lanır
##lanıyor
##lao
##lap
##lapa
##laq
##lar
##lara
##laracji
##larak
##laran
##larca
##lard
##larda
##lardan
##lardı
##lardır
##lare
##laren
##lares
##large
##lari
##laria
##laring
##larini
##laris
##larken
##larla
##larna
##larni
##laro
##lars
##lart
##lary
##ları
##larımız
##larımızı
##larımızın
##ların
##larına
##larında
##larından
##larını
##larının
##larınızı
##larıyla
##las
##lasa
##lase
##lash
##lasi
##lasia
##laska
##lass
##lassa
##lasse
##lassen
##lasst
##lassung
##last
##lasta
##laste
##lasti
##lastic
##lasting
##lasy
##lasyon
##lat
##lata
##latan
##late
##lated
##laten
##later
##lateral
##lates
##lati
##latie
##latif
##lating
##lation
##lations
##lativ
##lative
##latma
##latmak
##latmaya
##lato
##lator
##lators
##latory
##latt
##latu
##lature
##latus
##latz
##latè
##latıldı
##latır
##lau
##lauch
##lauf
##laufen
##laug
##laun
##laus
##lauso
##lausos
##lav
##lava
##lave
##lavi
##lavo
##law
##lawat
##lawn
##lax
##lay
##laya
##layabilir
##layacak
##layan
##layarak
##layer
##layo
##layıcı
##layın
##layıp
##laz
##laza
##lazar
##laze
##lazen
##lazi
##lazio
##lazione
##lazioni
##lazo
##lação
##lać
##laşa
##laşan
##laşma
##laşmak
##laşmanın
##laşması
##laşmaya
##laşmış
##laştı
##laştırma
##laştırmak
##laşılan
##laşılır
##laşır
##laşıyor
##lb
##lba
##lban
##lbar
##lben
##lberg
##lbert
##lbi
##lbs
##lbu
##lby
##lc
##lca
##lce
##lcem
##lch
##lci
##lcio
##lco
##lcu
##ld
##lda
##ldan
##ldas
##lde
##ldean
##lden
##lder
##ldes
##ldet
##ldi
##ldig
##ldige
##ldigt
##ldin
##lding
##ldiği
##ldo
##ldre
##lds
##ldu
##ldun
##ldur
##lduğu
##ldy
##ldü
##ldı
##ldığı
##le
##lea
##leader
##leaf
##league
##lean
##lear
##leas
##leashed
##leat
##leb
##lebe
##leben
##lebig
##lebilir
##lebnis
##lebt
##lec
##lecek
##lech
##lecht
##lecie
##leco
##lect
##lection
##lections
##led
##leda
##ledd
##lede
##ledek
##leden
##leder
##ledi
##ledig
##ledik
##ledim
##leding
##lediği
##lediğini
##lee
##leed
##leef
##leek
##leen
##leer
##leerde
##leet
##lef
##leg
##lega
##legan
##legar
##lege
##legen
##leger
##leges
##legg
##legge
##leggen
##legger
##legging
##legi
##lego
##legra
##legs
##legt
##legu
##legung
##ległość
##leh
##lehen
##lei
##leich
##leicht
##leid
##leiden
##leider
##leiding
##leidung
##leie
##leigh
##leihen
##leik
##lein
##leiro
##leiros
##leis
##leistung
##leistungen
##leit
##leiter
##leitt
##leitung
##lej
##leja
##leje
##leji
##lejki
##lejo
##lek
##leka
##leke
##leken
##leket
##leki
##lektor
##lel
##lela
##lele
##leli
##lella
##lelo
##lem
##lema
##leman
##leme
##lemek
##lemektedir
##lemen
##lement
##lemesi
##lemeye
##lemez
##lemi
##lemine
##lemler
##len
##lena
##lence
##lend
##lende
##lendi
##lendid
##lendirdi
##lendiren
##lendirici
##lendirilen
##lendirilmesi
##lendirilmiş
##lendirir
##lendirme
##lendirmek
##lendiği
##lendo
##lendor
##lendu
##lene
##lenebilir
##lenecek
##lenek
##lenen
##lener
##lenerek
##leng
##lengd
##length
##leni
##lenia
##lenie
##lening
##lenip
##lenir
##leniu
##leniyor
##lenku
##lenme
##lenmek
##lenmektedir
##lenmesi
##lenmesine
##lenmiş
##lenmiştir
##leno
##lens
##lent
##lenta
##lente
##lenti
##lenu
##leny
##lenze
##leo
##leone
##lep
##lepe
##lepsi
##lepsy
##lequin
##ler
##lera
##lerce
##lerde
##lerden
##lerdir
##lere
##lerek
##leren
##leri
##leria
##lerie
##lerimiz
##lerimize
##lerimizin
##lerin
##lerinde
##lerinden
##lerine
##lering
##lerini
##lerinin
##lerinizi
##leriyle
##lerken
##lerle
##lernen
##lers
##lert
##lery
##les
##lesa
##lese
##lesen
##lesi
##lesie
##lesque
##less
##lessa
##lesse
##lessly
##lessness
##lesterin
##let
##leta
##letan
##letas
##lete
##leten
##letes
##leti
##letik
##letilmiş
##letin
##letni
##leto
##leton
##lets
##letse
##lett
##letta
##lette
##letter
##letti
##lettu
##letu
##letzt
##leu
##leur
##leus
##leute
##leux
##lev
##leva
##levad
##levat
##leven
##lever
##levering
##levi
##lew
##lewa
##lewood
##lex
##ley
##leya
##leyebilir
##leyecek
##leyen
##leyerek
##leyici
##leyin
##leyip
##lez
##leza
##leze
##lezi
##lezione
##leń
##leşen
##leşik
##leşim
##leşir
##leşme
##leşmesi
##leşmiş
##leştirilmiş
##leştirme
##leştirmek
##lf
##lfa
##lfi
##lg
##lga
##lgan
##lge
##lgi
##lgono
##lgu
##lh
##lha
##lhada
##lhado
##lhamento
##lhas
##lhat
##lhau
##lhe
##lheiro
##lhin
##lho
##lhos
##li
##lia
##liable
##liación
##liad
##liado
##liai
##liam
##lian
##liana
##liano
##liant
##liar
##liare
##lias
##liate
##lib
##libro
##lic
##lica
##licaciones
##lical
##lican
##licar
##licação
##licações
##lice
##lich
##liche
##lichen
##licher
##liches
##lichkeit
##lichkeiten
##licht
##lichten
##lichting
##lici
##licit
##licle
##lico
##licou
##licu
##licy
##liczenia
##lid
##lida
##lidad
##lidade
##lidades
##lidae
##lide
##lides
##lidir
##lido
##lidos
##lie
##lieb
##lieben
##lied
##lief
##lieferung
##liegen
##liegende
##liegenden
##liek
##lieke
##liem
##lien
##lier
##liere
##liers
##lies
##liest
##liet
##ließ
##ließen
##lif
##life
##lifi
##lift
##lifting
##lig
##liga
##ligan
##ligar
##ligas
##lige
##ligen
##liggende
##ligger
##light
##lightenment
##lights
##ligi
##ligini
##ligis
##ligo
##ligt
##lih
##lii
##lijk
##lijke
##lijken
##lijks
##lijn
##lijs
##lijst
##lik
##lika
##likan
##likas
##like
##liki
##likke
##likle
##likler
##likleri
##liko
##liks
##likse
##likt
##likte
##likti
##liku
##likuje
##lil
##lila
##liler
##lili
##lilik
##lilla
##lim
##lima
##liman
##limat
##lime
##limi
##limin
##limit
##limmer
##limo
##lin
##lina
##linan
##lind
##linda
##lindre
##lindrical
##line
##linea
##lined
##linen
##liner
##lines
##liness
##ling
##linga
##linge
##lingen
##linger
##lingi
##lingo
##lings
##lington
##lingu
##lingua
##lingual
##lingue
##lini
##linie
##linien
##linin
##lining
##linio
##linis
##link
##linka
##linken
##links
##linn
##linna
##lino
##linou
##lins
##lint
##linter
##linu
##liny
##lio
##lion
##lione
##lioni
##lions
##lios
##lip
##lips
##liq
##liquant
##lique
##lir
##lira
##lire
##liro
##lis
##lisa
##lisation
##lische
##lise
##lised
##liseer
##lisen
##lish
##lished
##lishi
##lisi
##lisis
##lisk
##liska
##lisko
##lisme
##lismo
##liso
##lissa
##lissement
##lisses
##list
##lista
##liste
##listed
##listen
##listes
##listi
##lisyon
##lit
##lita
##litan
##litas
##litat
##lite
##liteit
##liter
##lith
##lithe
##lithic
##liti
##litik
##lition
##litis
##lito
##lits
##litten
##lity
##litz
##lità
##litäten
##lité
##liu
##lium
##lius
##liv
##liva
##live
##livet
##liw
##liwa
##liwe
##liwości
##liwość
##liwy
##liwych
##lix
##liy
##liya
##liye
##liyi
##liyo
##liyor
##liz
##liza
##lizacji
##lizar
##lizasyon
##lizator
##lização
##lize
##lizi
##liziert
##lizo
##lizza
##lią
##lić
##liğe
##liği
##liğin
##liğinde
##liğinden
##liğine
##liğini
##liğinin
##liśmy
##liş
##lişi
##lj
##lja
##ljan
##lje
##lji
##ljon
##lk
##lka
##lkan
##lke
##lken
##lki
##lko
##lku
##ll
##lla
##llaan
##llabus
##llada
##llah
##llam
##llament
##llan
##llana
##llanes
##llano
##llant
##llants
##llar
##llare
##llari
##llary
##lları
##llas
##llat
##llata
##llate
##llati
##llau
##lle
##lled
##lleg
##llement
##llen
##llene
##ller
##llera
##lleri
##lleria
##llerie
##llery
##lles
##llesi
##llet
##llett
##lli
##llier
##llig
##llige
##llik
##llim
##llin
##lline
##lling
##llingen
##llion
##llir
##llis
##llista
##llit
##llium
##llo
##llon
##llor
##llos
##llow
##lls
##llt
##llu
##llum
##llung
##llus
##lly
##llä
##llé
##lló
##llı
##lm
##lma
##lmak
##lmaktadır
##lmalıdır
##lman
##lmann
##lmar
##lmas
##lması
##lmat
##lmaya
##lmaz
##lme
##lmek
##lmektedir
##lmelidir
##lment
##lmente
##lmer
##lmes
##lmesi
##lmet
##lmez
##lmi
##lmiş
##lmiştir
##lmo
##lmu
##lmus
##lmuş
##lmüş
##lmış
##ln
##lna
##lne
##lnego
##lnej
##lnes
##lni
##lnia
##lnica
##lnie
##lnik
##lnika
##lniki
##lnili
##lno
##lności
##lność
##lnu
##lny
##lnych
##lnym
##lną
##lo
##loa
##load
##loader
##lob
##loba
##lobi
##lobin
##lobo
##loc
##location
##loch
##lock
##locks
##lod
##lode
##lodi
##loe
##lof
##log
##loga
##loge
##logen
##loger
##logi
##logia
##logic
##logica
##logical
##logiczne
##logicznej
##logiczny
##logicznych
##logie
##logies
##logii
##logik
##logio
##logique
##logiques
##logis
##logisch
##logische
##logist
##logista
##logists
##logo
##logu
##logue
##logues
##logy
##logía
##loh
##lohe
##loi
##loid
##loin
##loir
##lois
##loj
##loji
##lojik
##lok
##loka
##loko
##lol
##lola
##lolo
##lom
##loma
##lome
##lomerat
##lomo
##lomu
##lon
##lona
##lone
##long
##longa
##longe
##longo
##loni
##lons
##lony
##loo
##lood
##loog
##look
##loon
##loop
##loops
##loos
##loosheid
##lop
##lope
##lopedia
##lopen
##lopend
##lopende
##loper
##lopo
##lopp
##loq
##lor
##lora
##lord
##lords
##lore
##lorescences
##lori
##lorid
##loride
##loring
##loro
##los
##losa
##lose
##losen
##loser
##losi
##losis
##loso
##lossa
##lossing
##lost
##lot
##lota
##lote
##loten
##loti
##loto
##lots
##lott
##lotte
##lotu
##lou
##loud
##lous
##lov
##lova
##love
##loven
##lovi
##lová
##lové
##low
##lowa
##lowe
##lowo
##lowy
##loxacin
##loy
##loyment
##loza
##loze
##lozi
##lozo
##lp
##lpa
##lph
##lpi
##lr
##lry
##ls
##lsa
##lse
##lsen
##lser
##lsi
##lsin
##lsk
##lska
##lski
##lsko
##lso
##lson
##lst
##lster
##lt
##lta
##ltaa
##ltam
##ltan
##ltar
##ltas
##lte
##ltem
##lten
##lter
##ltern
##lteste
##lti
##ltje
##ltma
##lto
##lton
##ltos
##lts
##ltu
##ltung
##ltur
##ltura
##lture
##lty
##ltà
##ltä
##ltó
##lu
##lua
##luan
##luar
##luat
##luatie
##lub
##luca
##lucent
##lucht
##luci
##lucio
##luciones
##lución
##luck
##lud
##lude
##ludi
##ludo
##lue
##luence
##luent
##luenza
##luf
##luft
##lug
##luga
##luge
##lugi
##lugu
##lui
##luia
##luigi
##luir
##luis
##luit
##luja
##luje
##luk
##luka
##luke
##lukları
##lul
##lula
##lum
##lumba
##lume
##lun
##luna
##lund
##lung
##lunga
##lungen
##luo
##lup
##lur
##lure
##lus
##lusa
##luse
##lusi
##lusion
##lussa
##lust
##luste
##lusti
##lut
##luta
##luti
##lution
##luto
##luv
##lux
##luyor
##luz
##luza
##luzi
##luğa
##luğu
##luğun
##luğuna
##luğunda
##luğunu
##luğunun
##lv
##lva
##lvan
##lve
##lved
##lver
##lvi
##lvia
##lving
##lvio
##lvo
##lw
##lwa
##lwe
##lwer
##ly
##lya
##lyan
##lye
##lyn
##lyne
##lyo
##lyon
##lyos
##lyp
##lys
##lysator
##lyse
##lysis
##lyst
##lyste
##lyt
##lyte
##lytic
##lz
##là
##lá
##lám
##lán
##lár
##lás
##lást
##lát
##lân
##lândia
##lä
##läche
##län
##länder
##ländern
##ländische
##ländischen
##länge
##lär
##lärt
##lärung
##lässt
##läufe
##lè
##lène
##lès
##lète
##lèvement
##lé
##lée
##lées
##lés
##lési
##lét
##léte
##lê
##lên
##lë
##lì
##lí
##lía
##lícita
##lím
##lín
##líne
##líneas
##lî
##lò
##ló
##lóg
##lógica
##lógicas
##lógico
##lógicos
##lón
##lön
##lös
##lösen
##löser
##löst
##lösung
##lù
##lú
##lü
##lüb
##lük
##lüklü
##lüm
##lür
##lüsse
##lüyor
##lüyü
##lüğü
##lüğünde
##lüğüne
##lüğünü
##lā
##lą
##ląd
##lądu
##lę
##lī
##lı
##lıb
##lıdır
##lık
##lıkla
##lıklar
##lıkları
##lılar
##lım
##lıma
##lın
##lına
##lının
##lıp
##lır
##lısı
##lıyor
##lıyorum
##lıyoruz
##lığa
##lığı
##lığın
##lığına
##lığında
##lığını
##lığının
##lış
##m
##ma
##maa
##maak
##maakt
##maal
##maan
##maat
##mab
##mable
##mac
##maca
##mach
##machen
##macher
##machine
##machines
##macht
##machung
##mack
##maco
##mad
##mada
##madan
##made
##mado
##mados
##madu
##madzenia
##madzi
##madı
##madım
##madığı
##mae
##mag
##maga
##magan
##mage
##mago
##mah
##mahal
##mai
##maid
##mail
##main
##maine
##mais
##mait
##maj
##major
##mak
##maka
##make
##maken
##maker
##makers
##maki
##making
##makke
##mako
##maks
##maktadır
##mal
##mala
##malama
##malar
##maları
##male
##malen
##mali
##malig
##malige
##malo
##mals
##malt
##malu
##maly
##malı
##malıdır
##mam
##mama
##maması
##mamay
##mame
##mamış
##man
##mana
##management
##manager
##manan
##manas
##mand
##manda
##mande
##mando
##mane
##manes
##mang
##manga
##mani
##mania
##manie
##maning
##mann
##manna
##mannen
##manni
##manns
##mannschaft
##mano
##mans
##manship
##mant
##mante
##many
##manya
##manye
##manê
##manên
##manı
##manın
##mao
##map
##maq
##mar
##mara
##maran
##marca
##marché
##mard
##mare
##mari
##maria
##marie
##marin
##marina
##marine
##marino
##mark
##marka
##marked
##marken
##marker
##market
##marketing
##marks
##markt
##maro
##mars
##mart
##maru
##mas
##masa
##maschine
##maschinen
##mase
##masi
##maso
##mass
##massa
##masse
##mast
##master
##masti
##masy
##masyon
##ması
##masına
##masını
##masının
##mat
##mata
##match
##mate
##maten
##materiaal
##material
##mates
##math
##mati
##matia
##matic
##matica
##matico
##matig
##matige
##matik
##matike
##mation
##matique
##matiques
##mato
##matsu
##matu
##matua
##mau
##maw
##mawia
##max
##may
##maya
##mayan
##maye
##mayo
##mayı
##mayın
##maz
##maza
##mazi
##mazione
##maß
##mağa
##mağı
##mb
##mba
##mbad
##mbag
##mbal
##mbali
##mban
##mbana
##mbano
##mbar
##mbara
##mbas
##mbat
##mbau
##mbe
##mbel
##mbela
##mben
##mber
##mbere
##mbert
##mbi
##mbia
##mbie
##mbina
##mbino
##mbit
##mble
##mbles
##mbling
##mbo
##mbol
##mbolo
##mbon
##mbra
##mbre
##mbro
##mbs
##mbu
##mbul
##mbull
##mburg
##mbus
##mby
##mca
##mce
##mci
##mców
##md
##mda
##mdan
##mdar
##mde
##mden
##mdi
##me
##mea
##mec
##mecken
##med
##mede
##meden
##medi
##media
##medical
##medim
##mediği
##mee
##meen
##meer
##mees
##meester
##meg
##mega
##megi
##meh
##mehr
##mei
##meid
##meiden
##meier
##meira
##meiros
##meister
##meisterschaft
##mek
##meka
##mekte
##mektedir
##mel
##mela
##melada
##melade
##meld
##melde
##melder
##melding
##meldung
##mele
##melen
##meler
##meleri
##meli
##melidir
##melk
##mell
##mella
##melle
##meln
##melo
##melon
##melt
##mely
##mem
##memektedir
##memesi
##memiş
##men
##mena
##mencie
##mend
##mende
##mendi
##mendo
##mene
##menen
##menes
##meng
##meni
##menin
##menis
##meniz
##menler
##menleri
##menm
##menn
##meno
##mens
##mensa
##mense
##ment
##menta
##mental
##mentales
##mentar
##mentari
##mentation
##mentação
##mente
##menten
##menter
##mentes
##menti
##mento
##mentos
##ments
##mentu
##mentum
##menu
##meo
##mer
##mera
##mercato
##mere
##meren
##merge
##meri
##meria
##mericana
##merika
##mering
##merk
##merke
##merkelijk
##merken
##merkt
##mern
##mero
##mers
##mert
##mería
##mes
##mesa
##mese
##mesi
##mesine
##mesini
##meso
##messa
##messe
##messen
##messer
##messi
##messo
##mest
##mesti
##met
##meta
##mete
##meter
##methode
##meti
##metic
##meting
##metis
##metr
##metra
##metre
##metri
##metria
##metric
##metrie
##metrik
##metro
##metru
##metry
##metría
##mets
##metse
##mette
##mettere
##metti
##mettre
##meu
##mev
##mex
##mey
##meye
##meyecek
##meyen
##meyer
##meyi
##meyin
##mez
##meze
##meña
##mf
##mfa
##mfo
##mg
##mga
##mh
##mhan
##mhar
##mi
##mia
##mial
##mian
##miana
##miar
##miało
##mic
##mica
##mice
##mich
##miche
##mici
##mick
##mico
##micos
##mics
##micu
##mid
##mida
##midad
##middag
##middel
##middelen
##mide
##midi
##mido
##midt
##mie
##mieden
##miek
##miem
##mien
##mienia
##mienta
##miento
##mientos
##mier
##miera
##mies
##miet
##mień
##mig
##miga
##migas
##mige
##mih
##mii
##mija
##mije
##mik
##mika
##mike
##miki
##miko
##miku
##mil
##mila
##mile
##mili
##milk
##mill
##milla
##mille
##milli
##mim
##min
##mina
##minable
##minación
##minado
##minan
##minar
##minas
##minat
##minata
##minate
##mination
##mind
##minde
##mine
##mined
##minen
##mines
##ming
##minga
##mingbird
##mingen
##mings
##mington
##mini
##minin
##minio
##minis
##minister
##ministeri
##ministerium
##ministrative
##ministro
##minium
##minn
##mino
##minou
##mins
##minster
##mint
##minta
##minti
##minu
##minuje
##mio
##mion
##mios
##miot
##mique
##miques
##mir
##mira
##miran
##mire
##miri
##miro
##mis
##misa
##misch
##mische
##mise
##mises
##mish
##misha
##misi
##misión
##miske
##mismo
##miso
##miss
##missa
##misse
##mission
##missione
##mist
##mista
##miste
##mistrz
##mistrza
##misu
##mit
##mita
##mite
##mitglieder
##mith
##miti
##mito
##mits
##mittel
##mittent
##mittler
##mittlung
##mità
##miu
##mium
##mix
##miya
##miye
##miyor
##miyorum
##miyoruz
##miz
##miza
##mizar
##mizde
##mizden
##mize
##mizi
##mizin
##miş
##mişti
##miştir
##mk
##mka
##mkan
##mke
##mko
##mku
##ml
##mla
##mlad
##mlar
##mları
##mle
##mler
##mleri
##mlerini
##mli
##mlich
##mlik
##mling
##mlu
##mlü
##mlı
##mm
##mma
##mman
##mmar
##mmat
##mme
##mmel
##mmen
##mmende
##mment
##mmer
##mmet
##mmetry
##mmi
##mmia
##mmin
##mming
##mmissa
##mmo
##mmt
##mmu
##mn
##mna
##mnat
##mne
##mnego
##mnej
##mnes
##mni
##mniej
##mning
##mno
##mns
##mnu
##mny
##mnych
##mo
##mob
##mobil
##mobile
##mobiliaria
##moc
##moci
##mod
##moda
##modal
##mode
##model
##modell
##modern
##moderne
##modi
##modium
##modo
##moe
##moeder
##mog
##mogi
##moj
##mok
##mol
##mola
##mole
##mology
##mom
##mon
##mona
##mond
##monda
##mondo
##monds
##mone
##mones
##mong
##moni
##monia
##monie
##mono
##mons
##mont
##montage
##monte
##mony
##moon
##moor
##moord
##moq
##mor
##mora
##moral
##mord
##more
##morgen
##mori
##moro
##mos
##mosa
##mosi
##moso
##most
##mot
##moth
##moti
##motif
##motion
##motiv
##motiva
##motive
##moto
##motor
##mou
##mount
##mour
##mout
##mouth
##mov
##mova
##move
##movi
##mowa
##mować
##mował
##mowy
##moya
##mp
##mpa
##mpal
##mpani
##mpar
##mpas
##mpat
##mpe
##mpel
##mpen
##mper
##mpf
##mph
##mpha
##mphe
##mpi
##mpia
##mpic
##mpien
##mpil
##mpilo
##mpin
##mping
##mpio
##mple
##mpleto
##mpli
##mpo
##mpor
##mporaneo
##mps
##mpt
##mpu
##mpy
##mra
##mran
##mri
##ms
##msa
##msak
##mse
##msen
##mser
##msi
##mska
##mske
##mski
##mson
##mst
##msta
##msten
##mt
##mta
##mte
##mten
##mti
##mu
##mua
##mud
##muda
##mui
##muj
##muje
##mują
##muk
##mul
##mula
##mulan
##mulator
##muli
##mulo
##mum
##mun
##muna
##mund
##munda
##mundo
##mune
##mung
##munhas
##munho
##muni
##munication
##munications
##muno
##munt
##mur
##mura
##mure
##muri
##muru
##mus
##muscular
##muse
##museum
##musi
##music
##musik
##must
##musta
##mut
##muta
##mutan
##mute
##muth
##muti
##muto
##mutter
##muyor
##muz
##muzda
##muzi
##muzun
##muş
##muştu
##muştur
##mva
##mwa
##mwe
##my
##mya
##mye
##myk
##myo
##mys
##mà
##má
##mál
##mán
##más
##mática
##máticas
##mático
##máticos
##mã
##mão
##mä
##mäe
##män
##märk
##mäßig
##mäßige
##mäßigen
##mål
##mè
##mère
##mès
##mètre
##mètres
##mé
##mée
##mén
##ména
##mérica
##més
##mét
##métique
##mê
##mên
##mí
##mín
##mínio
##mî
##mò
##mó
##món
##mónio
##mós
##móvel
##mônio
##möbel
##möglich
##möglichkeiten
##mú
##mü
##mün
##mür
##müz
##müş
##mā
##mą
##mę
##mı
##mın
##mıyor
##mıyorum
##mız
##mıza
##mızda
##mızdan
##mızı
##mızın
##mış
##mıştı
##mıştır
##n
##na
##naa
##naam
##naamste
##naar
##nab
##naba
##nabilir
##nac
##naca
##nacak
##nace
##nach
##nacht
##nachten
##nación
##nacji
##naczenia
##naczenie
##nad
##nada
##nadas
##nade
##nadi
##nado
##nador
##nados
##nae
##naf
##nag
##naga
##nagar
##nage
##nagem
##naggio
##nagh
##nago
##nah
##nahme
##nahmen
##nai
##naic
##nain
##naire
##naires
##nais
##naise
##nait
##naj
##naje
##nak
##naka
##nake
##naki
##nako
##nal
##nala
##nalan
##nalar
##nale
##nales
##nali
##nalo
##nalou
##nam
##nama
##namas
##name
##namen
##nament
##namento
##names
##nami
##nan
##nana
##nance
##nanci
##nanda
##nande
##nando
##nane
##nang
##nanga
##nani
##nania
##nanie
##naniu
##nano
##nans
##nant
##nante
##nantes
##nants
##nany
##nao
##nap
##napi
##nar
##nara
##narak
##nard
##nare
##naren
##nari
##naria
##nario
##narne
##naro
##narodowy
##narodowym
##nart
##nas
##nase
##nasi
##nast
##nasta
##nastics
##nastik
##nasyon
##nat
##nata
##natal
##nate
##nated
##nateur
##nath
##natha
##nati
##nating
##nation
##national
##nato
##nator
##natu
##natural
##nau
##naus
##naut
##nav
##nava
##nave
##navi
##naw
##nawa
##nay
##naya
##nayan
##naz
##nazio
##naí
##nağı
##nał
##nała
##nba
##nbar
##nberg
##nburg
##nc
##nca
##ncar
##ncas
##ncat
##ncave
##nce
##nced
##ncem
##ncen
##ncer
##nces
##nch
##ncha
##nche
##nchen
##nchi
##nci
##ncia
##nciado
##ncial
##nciar
##ncias
##ncie
##ncier
##ncies
##ncin
##ncing
##ncio
##nciones
##ncioso
##nciou
##ncis
##nció
##nción
##ncja
##ncje
##ncji
##ncją
##ncję
##nco
##ncom
##ncon
##ncourt
##ncs
##ncu
##ncy
##ncyjne
##ncé
##nd
##nda
##ndab
##ndaba
##ndaciones
##ndada
##ndades
##ndado
##ndaga
##ndage
##ndai
##ndaki
##ndal
##ndale
##ndam
##ndan
##ndance
##ndant
##ndante
##ndar
##ndare
##ndas
##ndata
##ndate
##ndati
##ndato
##ndav
##nde
##ndea
##nded
##ndeki
##ndel
##ndela
##nden
##ndente
##nder
##ndera
##ndere
##ndering
##ndero
##nders
##ndes
##ndesa
##ndet
##ndez
##ndha
##ndheid
##ndi
##ndia
##ndida
##ndido
##ndig
##ndige
##ndik
##ndil
##ndim
##ndime
##ndin
##ndina
##nding
##ndir
##ndis
##ndise
##ndisi
##ndist
##ndit
##ndium
##ndiza
##ndle
##ndlich
##ndlu
##ndo
##ndon
##ndoro
##ndos
##ndose
##ndosi
##ndr
##ndra
##ndre
##ndri
##ndrina
##ndrio
##ndro
##ndry
##nds
##ndt
##ndu
##ndula
##ndulo
##ndum
##ndung
##ndungen
##ndur
##ndus
##ndust
##nduzi
##ndy
##ndés
##ndê
##ndı
##ndığı
##ne
##nea
##neamente
##nean
##near
##neas
##neau
##neb
##nebilir
##nec
##necek
##nech
##neck
##nect
##ned
##neda
##nede
##neden
##neder
##nedor
##nee
##neem
##neemt
##neen
##neer
##nees
##neet
##neg
##nega
##nego
##neh
##nehmen
##nehmer
##nei
##neid
##neiden
##neiro
##neiros
##neis
##nej
##neja
##neje
##nejo
##nek
##neke
##neko
##nel
##nela
##nele
##neli
##nell
##nella
##nelle
##nellement
##nelles
##nelli
##nello
##nelo
##nels
##nem
##nema
##neme
##nemen
##nemende
##nement
##nements
##nemer
##nemers
##neming
##nemu
##nen
##nena
##nence
##nende
##nene
##neng
##nenge
##neni
##nens
##nent
##nente
##nenti
##neo
##neous
##nep
##nephrine
##ner
##nera
##nerabilities
##nere
##neren
##neri
##nerie
##nering
##nero
##ners
##nert
##nes
##nesa
##nesc
##nesch
##nese
##neses
##nesi
##nesia
##nesis
##ness
##nest
##neste
##net
##neta
##nete
##neti
##netik
##netje
##neto
##nets
##nett
##nette
##netz
##neu
##neur
##neurs
##nev
##neva
##new
##ney
##neye
##nez
##neza
##neze
##nezi
##nferma
##nfo
##nformation
##ng
##nga
##ngad
##ngan
##ngang
##ngano
##ngar
##ngas
##ngat
##ngba
##ngd
##ngde
##nge
##ngea
##nged
##ngel
##ngele
##ngelo
##ngement
##ngen
##ngene
##ngeni
##nger
##ngera
##ngere
##ngered
##nges
##ngesi
##ngeye
##ngham
##ngi
##ngia
##ngile
##ngin
##nging
##ngle
##ngli
##ngo
##ngola
##ngon
##ngono
##ngos
##ngra
##ngrijk
##ngs
##ngsa
##ngt
##ngton
##ngu
##ngue
##ngun
##ngwe
##ngy
##nh
##nha
##nham
##nhas
##nhau
##nhaus
##nheim
##nho
##nhos
##nhu
##ni
##nia
##niach
##niad
##niają
##niak
##nial
##niam
##niamo
##nian
##niana
##niania
##nianie
##niany
##nianych
##nias
##nib
##nic
##nica
##nical
##nicami
##nicas
##nice
##nich
##niche
##nici
##nick
##nico
##nicos
##nics
##nictwa
##nictwem
##nictwo
##nicu
##nicy
##nicza
##nicze
##niczego
##niczej
##niczna
##niczne
##niczny
##nicznym
##niczo
##niczy
##niczych
##niczym
##niczą
##nicą
##nid
##nida
##nidad
##nidade
##nide
##nido
##nie
##niece
##niej
##niejsze
##niejszy
##niejszych
##niek
##nieks
##niel
##niem
##niemy
##nien
##nienia
##nienie
##nieniu
##nier
##niera
##niere
##nieren
##niers
##nierung
##nies
##niese
##niesie
##niesienia
##niesienie
##niet
##nieuwde
##nieć
##nień
##nieść
##nig
##niga
##nige
##nigen
##nigh
##night
##nigi
##nii
##nij
##nije
##nik
##nika
##nike
##niki
##nikiem
##niko
##nikom
##nikov
##niku
##ników
##nil
##nila
##nile
##nili
##nilla
##nim
##nima
##nime
##nimi
##nimin
##nimmt
##nimo
##nimu
##nin
##nina
##nine
##ning
##ninga
##ningen
##ninger
##ningi
##nings
##nington
##ningu
##nini
##nino
##niny
##nio
##niom
##nion
##nione
##niony
##nionych
##nior
##nios
##niowe
##niowych
##nip
##nique
##nir
##nira
##nire
##niro
##nis
##nisa
##nisation
##nisce
##niscent
##nisch
##nische
##nischen
##nise
##nish
##nishi
##nisi
##nisk
##niska
##niski
##nisko
##nisku
##nisme
##nismo
##niso
##nisse
##nissen
##nist
##nista
##niste
##nister
##nisti
##nit
##nita
##nitas
##nite
##niti
##nition
##nito
##nitori
##nitsa
##nitur
##nitus
##nity
##nità
##nité
##niu
##nium
##nius
##niva
##niveau
##nix
##niya
##niyor
##niz
##niza
##nizado
##nizar
##nizde
##nize
##nized
##nizi
##nizin
##nizm
##nizo
##nière
##nières
##nië
##niósł
##nią
##nić
##nię
##nięcia
##nięcie
##nięciu
##nięć
##niği
##nił
##nj
##nja
##njali
##njar
##nje
##njera
##nji
##njo
##nju
##nk
##nka
##nkach
##nkami
##nkan
##nkat
##nkaya
##nke
##nken
##nker
##nkha
##nki
##nkiem
##nko
##nkom
##nks
##nkt
##nkta
##nku
##nków
##nką
##nkę
##nland
##nlar
##nları
##nleg
##nler
##nlich
##nliche
##nlig
##nlik
##nly
##nlı
##nlık
##nm
##nma
##nmak
##nmaktadır
##nman
##nması
##nmatik
##nmaz
##nme
##nmek
##nment
##nmesi
##nmeyen
##nmi
##nmiş
##nmiştir
##nmu
##nmış
##nmıştır
##nn
##nna
##nnale
##nnan
##nnar
##nnat
##nne
##nnect
##nned
##nnego
##nnej
##nnel
##nnen
##nner
##nnes
##nnet
##nni
##nnial
##nnich
##nnico
##nnie
##nnik
##nnin
##nning
##nnis
##nno
##nnon
##nność
##nnt
##nnte
##nnu
##nnus
##nny
##nnych
##nné
##no
##noa
##noc
##nock
##nod
##node
##nodi
##noe
##nog
##noi
##noid
##nois
##noita
##noj
##nok
##noka
##nol
##nola
##nolo
##nologi
##nologia
##nologica
##nologie
##nom
##noma
##nome
##nomen
##nomi
##nomia
##nomic
##nomie
##nomik
##nomique
##nomis
##nomische
##nommen
##nomo
##noms
##nomy
##nomía
##non
##nona
##noncé
##none
##noni
##nons
##noo
##nood
##nor
##nora
##nore
##nori
##norodność
##nos
##nosa
##nosce
##nosciuta
##nosciuti
##nose
##nosi
##nosis
##nost
##nosti
##nostic
##nostik
##nosty
##not
##nota
##note
##noten
##notes
##noti
##noty
##nou
##nous
##nout
##nov
##nova
##noval
##nove
##novela
##novi
##novo
##nové
##now
##nować
##nowienie
##nowsza
##nowszy
##nowy
##noy
##noz
##nozu
##ności
##nością
##ność
##nq
##nque
##nr
##nra
##nrin
##ns
##nsa
##nsas
##nsation
##nse
##nsed
##nsen
##nser
##nses
##nshi
##nsi
##nsible
##nsie
##nsinn
##nsis
##nsiv
##nsiva
##nsivo
##nsiya
##nsje
##nsk
##nska
##nski
##nsky
##nso
##nson
##nst
##nstein
##nsu
##nsur
##nswa
##nsä
##nsí
##nt
##nta
##ntaa
##ntaan
##ntach
##ntado
##ntage
##ntai
##ntain
##ntair
##ntais
##ntaj
##ntak
##ntal
##ntals
##ntam
##ntamento
##ntamiento
##ntan
##ntana
##ntando
##ntant
##ntante
##ntar
##ntara
##ntare
##ntari
##ntario
##ntaro
##ntary
##ntas
##ntat
##ntata
##ntati
##ntation
##ntato
##nte
##ntea
##nted
##ntei
##ntele
##ntem
##ntemente
##nten
##ntena
##nteni
##nter
##nteri
##ntes
##nth
##ntha
##nthu
##nti
##ntia
##ntial
##ntic
##ntica
##ntico
##ntie
##nties
##ntifica
##ntifika
##ntik
##ntil
##ntilla
##ntin
##ntina
##ntine
##nting
##ntini
##ntino
##ntion
##ntir
##ntis
##ntita
##ntiva
##ntivo
##ntla
##ntly
##ntne
##nto
##ntolo
##nton
##ntos
##ntou
##ntra
##ntrat
##ntre
##ntri
##ntro
##ntru
##nts
##ntse
##ntu
##ntualne
##ntują
##ntul
##ntum
##ntur
##ntura
##nture
##nturi
##ntus
##nty
##ntz
##ntä
##ntè
##nté
##ntí
##ntía
##ntó
##ntów
##ntö
##ntı
##ntıları
##nu
##nua
##nuar
##nub
##nud
##nuda
##nue
##nui
##nuit
##nuje
##nuk
##nul
##nula
##nulo
##num
##nummer
##nun
##nuna
##nung
##nunu
##nuo
##nur
##nura
##nuro
##nus
##nut
##nuta
##nute
##nuti
##nuto
##nutzung
##nuyor
##nuz
##nuzu
##nuzun
##nwa
##nwe
##nwi
##nwo
##nx
##ny
##nya
##nyal
##nych
##nye
##nyi
##nyk
##nym
##nymi
##nys
##nyu
##nywa
##nywania
##nywać
##nz
##nza
##nzana
##nzas
##nze
##nzen
##nzi
##nzia
##nziale
##nziali
##nzione
##nzioni
##nzo
##nzwe
##nà
##ná
##nál
##námi
##nán
##nár
##nário
##nä
##nän
##nç
##nça
##nçament
##nças
##nção
##nções
##nè
##nès
##né
##néal
##née
##nées
##néis
##nél
##ném
##nés
##név
##nê
##nên
##nì
##ní
##nía
##níc
##ním
##nî
##nò
##nó
##nómica
##nómicas
##nómico
##nós
##nóstico
##nów
##nômico
##nös
##nú
##nü
##nüm
##nün
##nüz
##ný
##ną
##nąć
##nął
##nę
##nęła
##nī
##nı
##nın
##nır
##nıyor
##nız
##nıza
##nızda
##nızı
##nışma
##o
##oS
##oa
##oacia
##oada
##oak
##oal
##oan
##oana
##oane
##oar
##oard
##oas
##oase
##oat
##oata
##oate
##ob
##oba
##oban
##obb
##obe
##oben
##obert
##oberto
##obi
##obia
##obil
##obile
##obla
##oble
##obo
##obora
##obot
##obra
##obri
##obu
##oby
##oc
##oca
##ocacia
##ocar
##ocare
##ocat
##ocate
##ocating
##ocation
##occhi
##oce
##och
##ocha
##oche
##ochi
##ocht
##ochtend
##oci
##ocia
##ociata
##ocie
##ocimiento
##ock
##oco
##ocodile
##ocus
##ocytes
##od
##oda
##odach
##odami
##odas
##odawca
##odawcy
##odawców
##odb
##odd
##oddi
##ode
##odel
##odem
##oden
##oder
##oderma
##odi
##odil
##odila
##odle
##odna
##odne
##odni
##odności
##odnych
##odo
##odol
##odom
##odon
##odor
##odos
##ods
##odu
##odus
##ody
##odzenia
##odzenie
##odzi
##odzie
##odzić
##odził
##odzą
##odów
##oe
##oed
##oedd
##oede
##oedig
##oeg
##oei
##oeien
##oek
##oel
##oen
##oende
##oenen
##oep
##oer
##oes
##oeste
##of
##ofa
##ofada
##ofar
##ofde
##ofe
##ofen
##ofer
##off
##offe
##offel
##offen
##offer
##offers
##ofi
##ofield
##oflavin
##ofo
##ofon
##ofra
##oft
##ofu
##og
##oga
##ogada
##ogan
##ogany
##ogat
##oge
##ogen
##ogenic
##oger
##ogh
##ogi
##ogia
##ogico
##ogida
##ogie
##ogique
##oglio
##ognito
##ognizing
##ogo
##ografi
##ografia
##ografie
##ografía
##ographie
##ography
##ogs
##ogu
##ogue
##ogun
##ogy
##oh
##oha
##ohan
##ohe
##ohen
##ohn
##oho
##ohu
##ohy
##oi
##oia
##oic
##oid
##oida
##oide
##oiden
##oie
##oil
##oille
##oin
##oina
##oine
##oir
##oire
##oires
##ois
##oise
##oissa
##oista
##oj
##oja
##ojan
##oje
##ojen
##oji
##ojik
##ojn
##ojo
##oju
##oją
##ok
##oka
##okan
##okat
##oke
##oked
##oken
##oki
##okin
##okk
##oko
##okon
##okra
##okrin
##oks
##oku
##okul
##okulu
##okus
##ol
##ola
##olado
##olais
##olak
##olan
##olar
##olare
##olari
##olas
##olat
##olata
##old
##oldi
##ole
##olea
##olek
##olekul
##olen
##olencia
##oler
##oles
##oleta
##olete
##oleto
##oleum
##olf
##olgen
##olher
##olhimento
##oli
##olia
##olic
##olica
##olide
##olie
##olik
##olin
##olina
##oline
##olini
##olio
##olique
##olis
##olit
##olite
##olk
##oll
##olla
##ollah
##olle
##ollen
##oller
##olli
##ollo
##olm
##olna
##olne
##olni
##olo
##olog
##ologa
##ologi
##ologia
##ologic
##ological
##ologie
##ologies
##ologique
##ologiques
##ologist
##ologists
##ologo
##ology
##ología
##oloji
##olojik
##olon
##olona
##olos
##olosa
##ols
##olski
##olt
##olta
##olte
##olten
##olto
##olu
##olucio
##olucionario
##olus
##olut
##olutie
##olva
##olve
##olvent
##olver
##olvi
##olviert
##olvierte
##olving
##olwa
##oly
##olás
##olé
##oló
##ológica
##ológico
##om
##oma
##omada
##omal
##oman
##omar
##omas
##omat
##omb
##omba
##ombe
##ombo
##ome
##omen
##omena
##omenda
##omene
##omer
##omes
##omet
##ometer
##omgeving
##omh
##omi
##omin
##omina
##oming
##omir
##omis
##omita
##omiti
##omm
##omme
##ommen
##ommer
##omming
##omo
##omoda
##omodar
##omodação
##omor
##omos
##ompli
##oms
##omt
##omu
##omwa
##omy
##on
##ona
##onach
##onada
##onado
##onados
##onais
##onal
##onale
##onali
##onamento
##onan
##onana
##onano
##onant
##onante
##onany
##onar
##onare
##onari
##onario
##onarios
##onas
##onat
##onata
##onate
##onati
##onato
##onau
##onawcy
##once
##oncer
##onch
##ond
##onda
##ondan
##onde
##ondela
##onder
##ondere
##ondi
##ondir
##ondo
##ondre
##one
##oned
##oneel
##onego
##onej
##onek
##onele
##onen
##oner
##onera
##onero
##ones
##onet
##oney
##ong
##onga
##ongan
##onge
##ongea
##ongen
##onger
##ongi
##ongo
##ongono
##onha
##oni
##onia
##oniamo
##onic
##onica
##onice
##onici
##onico
##onide
##onie
##onik
##onika
##onike
##oniki
##oniment
##onin
##onina
##oning
##onio
##onis
##onist
##onista
##onistas
##onit
##onite
##onja
##onk
##onka
##onlar
##onn
##onna
##onnan
##onne
##onnement
##onnen
##onner
##onni
##onné
##onnée
##ono
##onom
##onomi
##onon
##onos
##ons
##onsa
##onse
##ont
##onta
##onte
##onti
##onto
##ontri
##ontro
##ontrol
##onu
##onują
##onus
##ony
##onya
##onych
##onym
##onymus
##onzi
##onzo
##onário
##onê
##onía
##oną
##onę
##oo
##ood
##oog
##ooi
##ook
##ooked
##ooker
##ooks
##ool
##ools
##oom
##oon
##ooni
##oop
##oor
##oord
##oorlog
##oort
##oos
##oost
##oot
##op
##opa
##opane
##opardy
##opas
##opathic
##opathy
##ope
##open
##oper
##opera
##opers
##opes
##ophone
##opi
##opia
##opic
##opie
##oping
##opis
##opo
##opos
##oppen
##opri
##ops
##opsis
##opt
##oq
##oque
##oqué
##or
##ora
##oraa
##orado
##orados
##orak
##oral
##oran
##orana
##orang
##orant
##orar
##oras
##orat
##orati
##oration
##orazione
##orba
##orbiment
##orca
##orce
##orci
##orcio
##ord
##orda
##orde
##ordeel
##ordeeld
##orden
##order
##ordina
##ordinació
##ordinate
##ordinating
##ordne
##ordnet
##ordnung
##ore
##orea
##orem
##oren
##orer
##ores
##oret
##orf
##org
##orga
##organ
##organisation
##organisationen
##orge
##orgen
##orgt
##ori
##oria
##orial
##oric
##orid
##oride
##orie
##ories
##orii
##orin
##orina
##oring
##orio
##orique
##oris
##orit
##orite
##orium
##orius
##ork
##orka
##orku
##orlar
##orm
##orma
##orme
##ormi
##orn
##orna
##orne
##orni
##orno
##oro
##orol
##oron
##orona
##oros
##orou
##orov
##orp
##orption
##orra
##orre
##orren
##orrhea
##orri
##orro
##ors
##orse
##orsi
##orski
##ort
##orta
##orte
##orted
##orten
##orter
##orth
##orto
##orts
##oru
##orum
##orwa
##ory
##orza
##orze
##orzio
##orzystane
##orção
##oré
##oró
##os
##osa
##osamente
##osan
##osant
##osar
##osas
##osat
##osc
##osce
##osci
##oscopic
##oscopy
##ose
##osed
##osen
##oser
##oses
##oset
##osh
##osha
##oshe
##oshi
##osi
##osia
##osición
##osin
##osina
##osing
##osis
##osit
##osita
##ositi
##ositie
##osition
##osité
##osizione
##osizioni
##osição
##oska
##oski
##oslav
##osna
##osny
##osną
##oso
##osom
##osos
##oss
##ossa
##osse
##ossen
##ossi
##osso
##ost
##osta
##ostaje
##ostali
##ostasis
##oste
##osten
##osti
##osto
##ostro
##osu
##osur
##osus
##osy
##osz
##osé
##osła
##ot
##ota
##otai
##otan
##otas
##otat
##ote
##otek
##otel
##oten
##oter
##oterapia
##otes
##oteza
##oth
##otherapy
##othi
##otho
##oti
##otic
##otica
##otik
##otin
##oting
##otique
##otis
##otische
##otisme
##otit
##otka
##otlar
##otna
##otne
##otni
##oto
##otol
##oton
##otonin
##otos
##otra
##otro
##otry
##ots
##otse
##ott
##otta
##otte
##otten
##otti
##otto
##otu
##oty
##otą
##otę
##ou
##ouche
##oud
##ouden
##ouer
##ough
##ouin
##oul
##ouli
##oum
##oun
##ound
##oune
##ount
##our
##ource
##ouri
##ourne
##ours
##ous
##ouse
##ously
##out
##oute
##outs
##ov
##ova
##ovac
##ovaly
##ovan
##ovani
##ovano
##ovant
##ovar
##ovat
##ovate
##ovati
##ove
##ovec
##ovecha
##oven
##oveni
##over
##overs
##ovi
##ovia
##ovic
##ovich
##ovil
##ovine
##ovit
##ović
##ovna
##ovo
##ovou
##ovs
##ovski
##ovu
##ovun
##ovy
##ová
##ové
##oví
##ow
##owa
##owacji
##owali
##owana
##owane
##owanego
##owanej
##owani
##owania
##owanie
##owaniem
##owaniu
##owano
##owany
##owanych
##owanym
##owaną
##ować
##ował
##owała
##owało
##owały
##owań
##owca
##owców
##owe
##owego
##owej
##owi
##owie
##owiec
##owitz
##owli
##owment
##own
##owne
##owni
##ownictwa
##ownie
##ownik
##owo
##owości
##owość
##ows
##owska
##owski
##owskiego
##owskiej
##owuje
##owy
##owych
##owym
##owymi
##ową
##owę
##ox
##oxa
##oxe
##oy
##oya
##oyant
##oye
##oyo
##oz
##oza
##ozas
##oze
##ozen
##ozi
##ozit
##ozna
##ozo
##ozu
##ozza
##ozó
##oña
##oño
##oğlu
##oła
##oły
##oń
##ończenie
##ości
##ość
##p
##pa
##paa
##paalde
##paan
##paar
##paart
##pable
##pac
##pace
##pach
##pack
##packen
##packt
##pad
##pada
##pade
##padni
##pado
##padu
##padł
##pae
##pag
##page
##pages
##pagina
##pah
##pahan
##pai
##paid
##pain
##pair
##paj
##pak
##paka
##paket
##paki
##pakken
##pakket
##pakking
##pako
##pakt
##pal
##pala
##palan
##pale
##palenia
##pali
##pall
##pallo
##palo
##palu
##pam
##pan
##pana
##pand
##panda
##pande
##pandi
##pando
##pandu
##pane
##panel
##pang
##pani
##pania
##panie
##panies
##pannen
##pano
##panoa
##panon
##pansi
##pant
##panta
##pante
##pants
##panu
##pany
##panya
##pança
##pao
##papa
##papier
##paq
##par
##para
##paran
##parar
##parat
##paration
##pard
##pare
##paren
##pari
##paring
##park
##parken
##paro
##part
##parte
##partei
##parten
##parti
##partie
##partij
##partisan
##partner
##party
##paru
##paré
##pas
##pasa
##pasan
##pase
##pasi
##pass
##passa
##passe
##passen
##passes
##passing
##passt
##past
##pasta
##paste
##pasti
##pat
##pata
##path
##pathic
##pathie
##pathy
##pati
##patia
##patie
##patient
##pato
##patro
##pats
##patu
##pau
##paus
##pausa
##pausal
##pause
##paw
##pay
##payer
##paí
##pać
##paşa
##pca
##pce
##pci
##pcia
##pcie
##pción
##pcja
##pcji
##pcję
##pcu
##pcy
##pd
##pe
##pea
##peak
##pean
##peana
##pec
##pect
##ped
##peda
##pede
##pedi
##pedia
##pedie
##pee
##peed
##pegi
##peh
##pei
##peita
##peito
##peja
##pek
##pekt
##pekte
##pektion
##pektiv
##pekto
##peku
##pel
##pela
##pele
##pelen
##peli
##pelijk
##pell
##pella
##pelle
##pelo
##pels
##pelt
##pem
##pement
##pen
##pena
##pend
##penda
##pende
##pendi
##pene
##peng
##penge
##peni
##penia
##peno
##pens
##pensa
##pensas
##pense
##pensi
##pension
##pent
##pente
##peo
##people
##per
##pera
##perado
##perador
##peran
##peras
##perative
##perci
##pere
##peres
##peri
##perimen
##perin
##period
##periode
##perioden
##peris
##perk
##pern
##pero
##pers
##person
##personal
##personen
##persoon
##pert
##perta
##pes
##pesa
##pesi
##peso
##pest
##pet
##peta
##pete
##peten
##peti
##peto
##pett
##petta
##pette
##petti
##petto
##peur
##peuta
##pewa
##peza
##pezi
##pełnienia
##pełnienie
##pełnione
##pf
##pfa
##pfe
##pfel
##pfen
##pflege
##pfo
##pft
##pfu
##pfung
##ph
##pha
##phage
##phageal
##phan
##phany
##phase
##phate
##phe
##phele
##pheli
##phen
##pher
##phera
##phere
##pheus
##phi
##phia
##phic
##phila
##phile
##philic
##philus
##phin
##phine
##phique
##pho
##phobia
##phobic
##phon
##phone
##phones
##phonie
##phony
##phor
##phoria
##photo
##phragm
##phu
##phur
##phus
##phy
##physical
##physics
##pi
##pia
##pian
##piano
##pias
##pib
##pic
##pica
##pice
##pici
##pick
##pico
##pid
##pida
##pide
##pidi
##pido
##pidos
##pie
##piece
##pieces
##piel
##piele
##pielen
##pielt
##pien
##pienia
##piente
##pier
##pies
##piest
##pieza
##pień
##pig
##pii
##pij
##pija
##pijn
##pik
##pike
##piko
##pil
##pila
##pilan
##pile
##pili
##pill
##piller
##pilo
##pilot
##pim
##pimento
##pin
##pina
##pinan
##pinas
##pine
##pines
##ping
##pingo
##pings
##pingu
##pini
##pinn
##pino
##pins
##pinta
##pinti
##pio
##pion
##pione
##pions
##pipe
##pique
##pir
##pira
##piración
##pirati
##pirato
##pire
##piri
##piris
##piro
##pis
##pisa
##pisan
##pisane
##pise
##pisi
##pist
##pista
##piste
##pisu
##pisuje
##pisy
##pit
##pita
##pital
##pitali
##pitan
##pite
##piter
##piti
##pito
##pitu
##piu
##pius
##piva
##piz
##pić
##pił
##pja
##pje
##pjes
##pk
##pka
##pke
##pki
##pkins
##pko
##pl
##pla
##plaat
##plaats
##plaatsen
##plaatst
##place
##plade
##plak
##plan
##plane
##planer
##plano
##plant
##plante
##planung
##plar
##pları
##plas
##plasia
##plasma
##plassen
##plast
##plasti
##plastic
##plata
##plate
##platen
##platte
##platz
##play
##player
##plazamiento
##ple
##pleeg
##plein
##plej
##plek
##pler
##ples
##plet
##pleta
##plete
##pleto
##plex
##pli
##plica
##plication
##plice
##plicht
##plici
##plicidade
##plin
##plina
##pling
##plit
##plne
##plo
##plora
##plu
##plugged
##plung
##plus
##ply
##plätze
##plí
##pm
##pman
##pment
##pn
##pna
##pne
##pni
##pnik
##pno
##pny
##po
##poa
##poca
##poche
##począć
##poczęcie
##pod
##poda
##podległości
##poe
##poi
##point
##points
##poj
##poja
##pok
##poka
##poke
##poko
##pol
##pola
##polar
##pole
##poles
##poli
##polis
##polita
##politik
##polo
##polu
##pom
##pomina
##pomniane
##pomniał
##pomnienie
##pomnij
##pomp
##pon
##pona
##ponder
##pondi
##pondono
##pone
##poner
##pong
##poni
##pono
##pons
##ponse
##pont
##ponu
##pony
##pool
##poor
##pop
##popo
##poq
##por
##pora
##pord
##pore
##poren
##pori
##porium
##porn
##porne
##porno
##poro
##port
##porta
##portal
##porte
##porti
##portiva
##porto
##ports
##portu
##poru
##pos
##posa
##pose
##posed
##poser
##posi
##posición
##position
##posição
##post
##posta
##posti
##posto
##postu
##pot
##pota
##pothalamus
##pothyroidism
##poti
##poto
##pou
##pour
##pov
##pova
##power
##powiedzi
##powiedź
##powszechnianie
##poze
##pozisyon
##pozycji
##pp
##ppa
##ppar
##ppe
##pped
##ppel
##ppen
##pper
##ppet
##ppets
##ppi
##ppia
##ppig
##ppige
##pping
##pple
##ppo
##pps
##ppt
##ppu
##ppy
##ppé
##pr
##pra
##praak
##praat
##prache
##pracować
##prak
##pran
##pras
##prat
##prav
##praw
##prawa
##prawy
##pre
##prechen
##prechend
##pred
##preek
##preendedor
##preendedorismo
##preender
##preis
##preise
##prek
##pren
##prenant
##prenante
##prendre
##prent
##pres
##presa
##prese
##presi
##president
##preso
##press
##pression
##pressor
##presyon
##pret
##preti
##pri
##prijs
##pril
##prim
##prima
##prime
##primi
##pring
##prins
##print
##pris
##prise
##prit
##pro
##probiert
##problem
##problemen
##proc
##proces
##prochen
##produkt
##produkte
##produktion
##profil
##profita
##program
##programm
##programma
##projekt
##proke
##pron
##proof
##pros
##prot
##protein
##prova
##prowadza
##prowadzenie
##prowadzone
##pru
##prudenza
##prus
##prys
##präch
##präsident
##près
##ps
##psa
##psal
##pse
##psen
##pses
##psi
##psia
##psie
##psin
##psis
##pska
##pske
##pski
##pskim
##psko
##psku
##pso
##pson
##psy
##pt
##pta
##ptas
##ptat
##pte
##pted
##pter
##ptera
##ptes
##pti
##ptic
##ptica
##ptico
##ptie
##pties
##ptik
##pting
##ption
##ptis
##pto
##pton
##ptor
##ptos
##pts
##ptu
##ptus
##pty
##pu
##pua
##puan
##publika
##pui
##puja
##puje
##puk
##puku
##pul
##pula
##pulado
##pule
##puli
##pulu
##pulver
##pum
##pumpe
##pun
##pung
##punkt
##punkte
##punktet
##punkti
##punktur
##punt
##punta
##punten
##puntu
##pur
##pura
##puram
##pure
##puri
##puro
##puru
##pus
##pusi
##puso
##pust
##put
##puta
##puti
##putra
##puté
##puu
##puy
##pw
##px
##py
##pya
##pá
##pán
##pár
##pát
##pä
##pção
##pè
##pé
##pédie
##pée
##pées
##pés
##pê
##pí
##pía
##pín
##pír
##pò
##pó
##pôt
##pú
##pü
##pą
##pę
##pınar
##płatnie
##płaty
##q
##qa
##qal
##qar
##qe
##qh
##qi
##qim
##qin
##qiy
##qq
##qqa
##qs
##qta
##qu
##qua
##quage
##quait
##qualität
##quam
##quant
##quants
##quard
##quare
##quartered
##quat
##quate
##quation
##quay
##qub
##que
##quei
##queira
##queiro
##quel
##quela
##quelle
##quem
##quen
##quena
##quent
##quente
##quently
##quenz
##queo
##queologia
##quer
##quera
##quero
##queror
##ques
##quesa
##quest
##questa
##quet
##queta
##quete
##quetes
##quets
##quette
##quettes
##quez
##queza
##queño
##qui
##quia
##quias
##quid
##quie
##quier
##quiere
##quilar
##quilla
##quille
##quillo
##quilo
##quim
##quin
##quina
##quine
##quinho
##quins
##quio
##quire
##quirer
##quis
##quise
##quisició
##quisite
##quismo
##quist
##quista
##quistão
##quit
##quita
##quite
##quito
##quity
##quité
##quo
##quor
##quot
##quote
##qué
##quée
##quées
##qués
##quí
##quía
##quín
##qüência
##r
##ra
##raa
##raad
##raag
##raak
##raal
##raam
##raan
##raat
##rab
##raba
##rabe
##rabi
##rabia
##rabile
##rabilia
##rabilir
##rable
##rables
##rabo
##rabs
##rac
##raca
##racak
##racció
##race
##rach
##racha
##rachd
##racht
##raci
##raciones
##ración
##racji
##racowanie
##ract
##raction
##ractive
##rad
##rada
##radas
##radd
##rade
##raden
##rader
##rades
##radh
##radi
##rading
##radio
##raditi
##rado
##rador
##rados
##radt
##radu
##rady
##radza
##rae
##raeli
##raf
##rafa
##raff
##rafi
##rafia
##rafo
##raft
##rag
##raga
##ragan
##rage
##ragen
##ragende
##rages
##rago
##ragon
##ragos
##ragt
##ragu
##rah
##raha
##raham
##rahi
##rahim
##rahmen
##rai
##raic
##raica
##raiche
##raid
##raig
##rail
##raim
##rain
##raina
##raine
##rained
##raino
##raint
##raio
##rair
##raire
##rais
##raisal
##rait
##raj
##raja
##raje
##rajn
##rajno
##rajo
##raju
##rak
##rake
##raken
##raki
##rako
##rakt
##raktion
##ral
##rala
##ralar
##rald
##rale
##rali
##rall
##ralo
##ralt
##ram
##rama
##raman
##ramble
##rame
##rament
##ramente
##ramento
##rami
##rammi
##ramo
##ramos
##ramu
##ramy
##ran
##rana
##ranas
##rance
##rand
##randa
##rande
##randi
##randing
##randire
##rando
##rane
##rang
##ranga
##range
##rangi
##rani
##rania
##raniczona
##raniczone
##raniczony
##ranie
##raniem
##ranil
##ranja
##rank
##rann
##ranno
##rannt
##rano
##rans
##rant
##ranta
##rante
##rantes
##ranti
##rants
##ranu
##rany
##raní
##rao
##raoh
##rap
##rapa
##rapan
##rapat
##raper
##raphie
##raphique
##raphiques
##raphy
##rapi
##raq
##rar
##rara
##rarak
##rare
##raren
##rari
##raria
##raro
##rarre
##ras
##rasa
##raschen
##rase
##rash
##rasi
##rasis
##raso
##rassa
##rast
##rasta
##raste
##rasti
##rastus
##rasyon
##rası
##rat
##rata
##ratación
##ratado
##ratan
##ratar
##ratas
##rate
##rated
##raten
##rater
##rates
##rath
##rati
##ratie
##rating
##ration
##rations
##ratis
##rativa
##rative
##rato
##rator
##ratos
##rats
##ratt
##ratta
##ratti
##ratu
##ratze
##ratzen
##rau
##rauc
##rauchen
##raucht
##raulico
##raum
##raun
##raus
##raut
##raux
##rav
##rava
##rave
##raved
##ravel
##raven
##ravi
##ravio
##ravit
##ravo
##ravou
##ravu
##raw
##rawa
##rawan
##rawe
##rawi
##rawie
##rawne
##rawy
##rax
##ray
##raya
##rayan
##rayi
##raz
##razi
##razia
##razili
##razio
##razione
##razioni
##razo
##razu
##ração
##rações
##raí
##raña
##rać
##rağı
##rał
##rań
##rb
##rba
##rban
##rband
##rbar
##rbe
##rbeit
##rbeiten
##rbeitet
##rbeitung
##rben
##rber
##rbi
##rbia
##rbo
##rbu
##rby
##rc
##rca
##rcal
##rcare
##rcat
##rce
##rces
##rch
##rcha
##rche
##rchen
##rchie
##rchu
##rchy
##rci
##rcia
##rcie
##rcis
##rco
##rcon
##rcu
##rcy
##rd
##rda
##rdam
##rdan
##rdani
##rdania
##rdar
##rdas
##rde
##rden
##rder
##rdes
##rdet
##rdi
##rdia
##rdim
##rding
##rdis
##rdiği
##rdne
##rdnet
##rdnung
##rdo
##rdon
##rdos
##rds
##rdt
##rdu
##rdy
##rdá
##rdü
##rdı
##rdığı
##re
##rea
##read
##reak
##real
##ream
##rean
##rear
##reas
##reasing
##reat
##reate
##reated
##reative
##reau
##reb
##rebbe
##rebilir
##rec
##recated
##rece
##recek
##recht
##rechte
##rechten
##reck
##recken
##red
##reda
##redd
##redded
##redder
##rede
##reden
##redet
##redi
##redir
##redne
##redni
##rednie
##rednim
##redo
##redon
##redu
##ree
##reed
##reek
##reen
##reep
##reerd
##rees
##reet
##ref
##reg
##rega
##regación
##regard
##regel
##regels
##regen
##regi
##regierung
##region
##register
##registre
##rego
##regte
##reht
##rei
##reib
##reibe
##reiben
##reibung
##reich
##reiche
##reichen
##reid
##reide
##reiden
##reifen
##reift
##reihe
##rein
##reinigung
##reio
##reira
##reiro
##reis
##reise
##reisen
##reit
##reita
##reiten
##reitet
##reito
##reiz
##rej
##reja
##reje
##rejo
##rek
##reka
##reke
##rekening
##rekin
##rekke
##reko
##rel
##rela
##reld
##rele
##reli
##rell
##rella
##relle
##relli
##rello
##relo
##rels
##rem
##rema
##reme
##rement
##remmo
##remo
##remos
##ren
##rena
##renant
##rence
##rend
##renda
##rende
##rendo
##rendum
##rene
##reng
##renga
##renge
##rengi
##reni
##renia
##renie
##renin
##rennen
##rennent
##reno
##rens
##rense
##rent
##renta
##rente
##rentes
##renti
##rents
##renze
##reo
##reou
##rep
##repa
##repi
##rer
##rera
##rere
##rerek
##reren
##rero
##res
##resa
##resan
##resc
##rescindível
##resco
##rese
##reshe
##resi
##resie
##resiones
##resis
##resiv
##resiva
##resión
##resji
##resma
##reso
##resor
##respondent
##ress
##ressa
##ressant
##ressants
##ressar
##resse
##ressed
##resses
##ressi
##ressie
##ression
##ressiv
##ressiva
##ressive
##ressivo
##resso
##ressor
##ressão
##rest
##reste
##resten
##resti
##resulta
##resultaten
##resy
##resyon
##resó
##ret
##reta
##retan
##retari
##retario
##rete
##reten
##reter
##retes
##reti
##retic
##retici
##retik
##retisch
##reto
##rets
##rett
##retta
##rette
##retten
##retter
##retti
##rettiği
##retto
##retu
##retung
##retär
##reu
##reuen
##reur
##reus
##reuse
##reut
##reux
##rev
##reva
##reve
##revedi
##reven
##revo
##rew
##rewa
##rex
##rey
##reye
##rez
##reza
##reze
##rezi
##rezo
##rezza
##rezzata
##rezzi
##rezzo
##rf
##rfa
##rfer
##rff
##rg
##rga
##rgan
##rgang
##rge
##rgen
##rger
##rgesch
##rgi
##rgia
##rgic
##rgid
##rgie
##rging
##rgio
##rgis
##rgo
##rgon
##rgs
##rgt
##rgu
##rgue
##rgy
##rh
##rha
##rhi
##rhu
##ri
##ria
##riad
##riaga
##riais
##riak
##rial
##riale
##riam
##riamente
##riamo
##rian
##riana
##riano
##rians
##riant
##riar
##rias
##riat
##riate
##riau
##rib
##riba
##ribe
##ribi
##ribile
##ribo
##ribu
##ribución
##ribuer
##ribui
##ribuis
##ribuita
##ribuição
##ribus
##ribute
##ribution
##ribuzione
##ric
##rica
##rical
##ricas
##rice
##rices
##rich
##riche
##richi
##richt
##richten
##richtigen
##richtung
##richtungen
##rici
##rición
##rick
##rico
##ricos
##rics
##ricted
##ricu
##ricular
##ricórdia
##rid
##rida
##ridade
##ride
##rider
##rides
##ridge
##ridi
##rido
##ridos
##rids
##rie
##rieb
##rieben
##ried
##riedade
##rieden
##rieg
##riek
##riel
##riem
##rien
##riendo
##riens
##riente
##rier
##riera
##riere
##rieren
##rieri
##riers
##riert
##ries
##riest
##riet
##rietà
##rif
##rifa
##riff
##rification
##rifice
##rified
##rifier
##rift
##rifying
##rig
##riga
##rigan
##rige
##rigen
##righ
##right
##rigi
##rigo
##rih
##rii
##rij
##rija
##rijden
##rijding
##rije
##rijf
##rijk
##rijke
##rijs
##rijven
##rik
##rika
##rikan
##rike
##riki
##riko
##riks
##rikt
##riku
##ril
##rila
##rildi
##rile
##rilebilir
##rilen
##rili
##rilir
##rill
##rilla
##rille
##rillo
##rilmesi
##rilmiş
##rilmiştir
##rilo
##rily
##rim
##rima
##riman
##rimci
##rime
##rimenkul
##riment
##rimento
##rimentos
##rimer
##rimi
##rimin
##riminação
##rimir
##rimo
##rimos
##rin
##rina
##rind
##rinde
##rindo
##rine
##rines
##ring
##ringe
##ringen
##ringer
##ringi
##ringir
##rings
##rington
##rinha
##rinho
##rini
##rinin
##rinis
##rink
##rinn
##rino
##rinos
##rins
##rint
##rinti
##rinto
##rinu
##riny
##rio
##riol
##riolet
##rion
##riona
##rions
##rios
##riosa
##rioso
##rious
##rip
##ripa
##ripe
##ript
##riptor
##rique
##riques
##rir
##rira
##rire
##riri
##riro
##ris
##risa
##risch
##rische
##rischen
##rise
##rish
##rishi
##risi
##rising
##risk
##rism
##risme
##rismo
##riso
##risse
##rist
##rista
##riste
##risti
##risto
##rists
##rit
##rita
##ritable
##ritada
##ritan
##ritas
##rite
##rites
##rith
##riti
##ritik
##ritis
##rito
##ritos
##rits
##ritse
##ritt
##ritta
##ritte
##ritten
##ritti
##ritu
##ritur
##ritura
##ritus
##rity
##ritz
##ritzen
##rità
##rité
##riu
##rium
##rius
##riusz
##riusze
##riuszy
##riv
##riva
##rive
##river
##rivere
##rivier
##rivé
##rix
##riy
##riya
##riye
##riyor
##riz
##riza
##rize
##rized
##rizione
##rizioni
##rizo
##rição
##rière
##riété
##rió
##riş
##rj
##rja
##rje
##rji
##rk
##rka
##rkan
##rkar
##rkati
##rke
##rkeit
##rken
##rki
##rkin
##rko
##rkom
##rkon
##rkov
##rks
##rkt
##rku
##rkus
##rky
##rkę
##rl
##rla
##rland
##rlanda
##rlandi
##rlands
##rlar
##rları
##rle
##rleg
##rleme
##rler
##rleri
##rley
##rleyen
##rli
##rlich
##rlik
##rlo
##rlu
##rm
##rma
##rmak
##rmala
##rman
##rması
##rmati
##rmaya
##rme
##rmed
##rmek
##rmen
##rmes
##rmeye
##rmi
##rmin
##rmiş
##rmo
##rms
##rmu
##rmuş
##rmy
##rmış
##rn
##rna
##rnada
##rnak
##rnale
##rnar
##rnas
##rnate
##rnation
##rne
##rned
##rnej
##rnen
##rner
##rnes
##rnet
##rni
##rnia
##rnica
##rnice
##rnici
##rnie
##rnik
##rnika
##rning
##rnis
##rno
##rnos
##rnou
##rns
##rnu
##rny
##rnych
##rnym
##rná
##rné
##rní
##ro
##roa
##road
##roat
##rob
##robe
##roc
##roce
##roces
##roch
##roche
##rochen
##rocher
##roci
##rock
##rocket
##roco
##rod
##roda
##rodami
##rode
##rodek
##rodi
##rodka
##rodki
##rodkowej
##rodków
##rodo
##rodu
##roduction
##roduktion
##roduzir
##rody
##rodą
##roe
##roef
##roen
##roep
##roerend
##roeven
##rof
##roffen
##rofi
##rog
##roga
##rogate
##rogation
##roge
##rogen
##roger
##rogo
##rogram
##roh
##rohen
##roi
##roid
##rois
##roit
##roj
##roja
##roje
##rojn
##rojo
##roju
##rok
##roka
##roki
##rokken
##roko
##roku
##rol
##rola
##role
##roll
##rolle
##rollen
##rolo
##rom
##roma
##roman
##rome
##romi
##romis
##romne
##romni
##romo
##romu
##ron
##rona
##rond
##rondack
##rone
##rones
##rong
##rongo
##roni
##ronic
##ronics
##roning
##rono
##rons
##ront
##ronta
##ronte
##rony
##ronym
##roo
##room
##rooms
##roon
##roos
##root
##roots
##rop
##ropa
##ropic
##ropin
##ropolis
##ropologia
##roponi
##ropriation
##roq
##ror
##rora
##rore
##rori
##roro
##ros
##rosa
##rose
##rosi
##rosine
##rosion
##rosis
##roso
##ross
##rossa
##rossi
##rost
##rosta
##rosti
##rot
##rota
##rote
##rotes
##roth
##roti
##rotnie
##roto
##rots
##rott
##rotu
##rou
##roud
##round
##rous
##rout
##route
##rouw
##roux
##rov
##rova
##roval
##rovare
##rovat
##rove
##rovi
##rovisation
##rovo
##row
##rowadzi
##rowadził
##rowane
##rowania
##rowanie
##rowany
##rować
##rownik
##rows
##rowski
##rowy
##rox
##roy
##roz
##roza
##roze
##rozi
##rozumienie
##rp
##rpa
##rpas
##rpe
##rpen
##rpi
##rpo
##rpos
##rps
##rpu
##rq
##rque
##rquia
##rr
##rra
##rrab
##rrada
##rrado
##rraf
##rral
##rran
##rras
##rre
##rrea
##rren
##rrer
##rret
##rreta
##rrhea
##rri
##rria
##rrida
##rrido
##rrier
##rrit
##rro
##rron
##rros
##rru
##rry
##rrà
##rrä
##rré
##rs
##rsa
##rsan
##rscheinlich
##rse
##rsei
##rsen
##rser
##rship
##rsi
##rsin
##rsk
##rska
##rski
##rskich
##rskie
##rskiej
##rskim
##rsko
##rsku
##rso
##rson
##rst
##rsta
##rste
##rsti
##rstwa
##rstwo
##rsu
##rsum
##rsus
##rt
##rta
##rtam
##rtan
##rtar
##rtas
##rtation
##rte
##rted
##rteen
##rtel
##rtem
##rten
##rter
##rtes
##rtet
##rth
##rti
##rtia
##rtic
##rtie
##rtier
##rtige
##rtijd
##rtikel
##rtin
##rtina
##rtion
##rtir
##rtis
##rtiva
##rto
##rton
##rtos
##rts
##rtu
##rtul
##rtus
##rty
##rtí
##rtą
##ru
##rua
##ruan
##ruar
##rub
##ruba
##rucciones
##rucción
##ruch
##ruck
##ruckt
##ructed
##ructura
##rud
##ruda
##rude
##ruder
##rudi
##rudnienie
##rue
##rues
##ruf
##rufbar
##rufen
##ruff
##rug
##ruga
##ruh
##rui
##ruim
##ruimte
##ruit
##ruje
##ruk
##rukcja
##rukcje
##rukcję
##ruki
##ruko
##rukt
##ruktion
##ruktor
##ruktur
##ruku
##rul
##rule
##rulmuş
##rulur
##rum
##ruma
##rume
##rument
##rumi
##rums
##rumu
##run
##runa
##runde
##rung
##rungen
##runn
##runner
##runt
##runu
##ruo
##rup
##rupa
##rupción
##rupt
##rupte
##rupted
##ruption
##ruptive
##ruq
##rur
##rura
##rure
##ruri
##rurier
##ruro
##rus
##ruse
##rush
##rusi
##rust
##rustad
##rut
##ruta
##rutan
##rute
##ruter
##ruth
##ruti
##rutor
##rutta
##rutto
##ruttore
##ruttori
##rutura
##ruwa
##ruye
##ruyor
##ruz
##ruzione
##ruzioni
##rução
##ruções
##rv
##rva
##rvan
##rvat
##rve
##rven
##rvesi
##rvi
##rvia
##rvo
##rvu
##rvá
##rvé
##rwa
##rwar
##rwać
##rwe
##rweise
##rwo
##rx
##ry
##rya
##ryan
##ryce
##rych
##rycia
##rycie
##ryd
##rye
##ryen
##ryf
##ryk
##ryka
##ryki
##ryl
##rym
##ryn
##ryna
##rynx
##ryny
##ryo
##ryp
##rypt
##rys
##ryt
##ryta
##ryte
##ryty
##rywa
##rywania
##rywanie
##rywać
##ryć
##rz
##rza
##rze
##rzec
##rzedni
##rzednie
##rzedniej
##rzednio
##rzega
##rzem
##rzen
##rzenia
##rzenie
##rzeniu
##rzeć
##rzeń
##rzeżenie
##rzi
##rzo
##rzone
##rzony
##rzt
##rzu
##rzy
##rzydła
##rzyja
##rzymaniu
##rzymał
##rzymy
##rzyć
##rzył
##rzą
##rządu
##rzę
##rà
##rá
##rácia
##ráfico
##rál
##rám
##rámica
##rán
##rás
##rát
##rável
##rão
##rä
##räder
##räfte
##räge
##räglich
##rän
##rät
##räume
##räumen
##rçant
##rè
##rès
##rète
##ré
##rée
##rées
##rém
##rément
##rén
##rés
##rétariat
##rê
##rême
##rência
##rì
##rí
##ría
##ríamos
##rías
##rídica
##rín
##rível
##rî
##rò
##ró
##rób
##rócił
##ród
##ródło
##rógeno
##rói
##ról
##róm
##rón
##rót
##rów
##różnienie
##rô
##rôle
##rões
##röm
##rù
##rú
##rún
##rúrgica
##rü
##rückt
##rük
##rüldü
##ründen
##rā
##rą
##rę
##ręgu
##rī
##rı
##rıcı
##rılan
##rıldı
##rılması
##rılmış
##rılır
##rım
##rın
##rına
##rında
##rından
##rını
##rının
##rıp
##rır
##rıyor
##s
##sa
##saa
##saad
##saal
##saan
##sab
##saba
##sabb
##sabi
##sabile
##sabili
##sable
##sables
##sac
##sach
##sacht
##sack
##sad
##sada
##sade
##sades
##sado
##saf
##saft
##sag
##saga
##sage
##sagen
##sager
##saggio
##sagn
##sagt
##sah
##saha
##sai
##sail
##sain
##sair
##sais
##sait
##saj
##sak
##saka
##saki
##sako
##saks
##sal
##sala
##salar
##sale
##salg
##sali
##sall
##salt
##salta
##salu
##sam
##sama
##same
##samen
##samente
##sami
##sammen
##samt
##samı
##san
##sana
##sance
##sand
##sane
##sang
##sanga
##sani
##sanna
##sano
##sans
##sant
##santa
##sante
##sants
##sanız
##sao
##sap
##saq
##sar
##sara
##sarbeit
##sare
##sarea
##sari
##sario
##saro
##sart
##sas
##sasi
##sat
##sata
##sate
##sati
##satie
##sation
##sations
##sato
##sator
##sats
##satte
##satu
##satz
##sau
##sauce
##saurus
##saus
##sav
##sava
##savo
##saw
##sawa
##say
##saya
##saz
##sazi
##sba
##sbank
##sbanken
##sbediening
##sbereich
##sberg
##sbild
##sbilder
##sborg
##sboro
##sbourg
##sburg
##sbury
##sby
##sc
##sca
##scale
##scape
##scar
##sce
##scence
##scentrum
##sch
##scha
##schaft
##schaften
##schaftlich
##schalige
##schalten
##schap
##schappen
##schappij
##schau
##sche
##schef
##schein
##schen
##scher
##sches
##schi
##schijnlijk
##schild
##schlag
##schlagen
##schloss
##schluss
##schläge
##schmerzen
##schnitt
##school
##schoss
##schrank
##schrift
##schriften
##schrijven
##schrijving
##scht
##schte
##schten
##schuhe
##schule
##schung
##schuss
##schutz
##sci
##scia
##science
##sciences
##sciuti
##sco
##scono
##scop
##scope
##scopic
##scopio
##scopo
##scopy
##score
##screen
##scu
##scus
##scy
##sd
##sda
##sdag
##sdagen
##sdale
##sdan
##sdaten
##sdatum
##sday
##sde
##sdelen
##sden
##sdienst
##sdorf
##sdorp
##se
##sea
##seau
##seb
##sebe
##sebi
##sec
##sed
##sedd
##sede
##seden
##sedi
##see
##seed
##seen
##seer
##seerd
##seerde
##sef
##sefe
##segun
##seh
##sehen
##sei
##seid
##sein
##seis
##seite
##seits
##seizoen
##seja
##sek
##seke
##seki
##seks
##seksual
##sel
##sela
##sele
##selen
##self
##seli
##selin
##seling
##sell
##sella
##selle
##seln
##selo
##sels
##selt
##sem
##sema
##seme
##sement
##semi
##semo
##sen
##sena
##send
##sende
##senden
##sender
##sendes
##sendung
##sene
##seng
##seni
##seniz
##senka
##sens
##sense
##sensor
##sent
##senter
##sento
##sep
##septic
##ser
##sera
##serat
##sere
##seren
##serfahrung
##seri
##serie
##serien
##sering
##seringen
##sern
##sero
##sers
##sert
##serte
##server
##service
##ses
##sesc
##sese
##sest
##set
##seta
##sete
##sets
##sett
##sette
##settes
##setzen
##setzt
##setzung
##seur
##seurs
##sev
##sever
##sex
##sexual
##sey
##sez
##sfaction
##sfall
##sfatti
##sfeld
##sfer
##sfera
##sfield
##sford
##sform
##sfreiheit
##sfrist
##sfristen
##sfähig
##sfähigkeit
##sfälle
##sführung
##sg
##sga
##sgegevens
##sgericht
##sgrad
##sgruppe
##sgruppen
##sgu
##sh
##sha
##shado
##shafen
##shaft
##sham
##shan
##shavn
##shaw
##she
##shed
##sheet
##sheid
##sheim
##shell
##shem
##shen
##sher
##shes
##shi
##shib
##shima
##shin
##shing
##ship
##shire
##shit
##shka
##shman
##shment
##shni
##sho
##shock
##shof
##sholm
##shon
##shop
##shot
##show
##sht
##shu
##shuis
##shwa
##si
##sia
##siad
##siada
##siai
##sial
##sian
##siana
##sias
##siasi
##sib
##sibile
##sibili
##sibilità
##sibini
##sible
##sibles
##sic
##sica
##sich
##sicherheit
##sicht
##sichtlich
##sición
##sico
##sid
##sida
##sidade
##sidan
##side
##siden
##sider
##sidi
##sidir
##sie
##siem
##sien
##sienie
##sier
##sieren
##siert
##sierte
##sierten
##sierung
##sies
##sif
##sig
##siga
##sige
##sigen
##sight
##sign
##sii
##sije
##sik
##sikal
##sike
##siko
##sil
##sila
##silbi
##sile
##sili
##silla
##sille
##silo
##sils
##sim
##sima
##sime
##simi
##simile
##simo
##simu
##simula
##simus
##sin
##sina
##sinan
##sinda
##sinde
##sindeki
##sinden
##sine
##sing
##singen
##sini
##sinin
##siniz
##sinn
##sino
##sins
##sio
##sion
##siona
##sionais
##sional
##sione
##siones
##sioni
##sions
##sios
##sip
##sir
##sira
##sire
##siri
##sis
##sisch
##sische
##sischen
##sisi
##siso
##sissa
##sist
##sista
##siste
##sit
##sita
##sitas
##site
##sites
##siti
##sitie
##sito
##sitor
##sitores
##situ
##situa
##situation
##sity
##sitz
##sità
##sité
##siu
##sium
##sius
##siv
##siva
##sive
##sivelmente
##sivi
##sivo
##siy
##siya
##siye
##siyle
##siyon
##siyum
##siz
##size
##sizin
##sizlik
##sió
##sión
##sią
##sić
##siębiorca
##sja
##sjahr
##sje
##sjen
##sjer
##sjes
##sjon
##sjoni
##sju
##sję
##sk
##ska
##skab
##skade
##skaj
##skala
##skalender
##skan
##skap
##skar
##skas
##skat
##skate
##skaya
##ske
##sken
##skende
##sker
##sket
##ski
##skich
##skie
##skiego
##skiej
##skiem
##skim
##skimi
##skin
##skis
##sko
##skog
##skoj
##skom
##skool
##skop
##skopi
##skopo
##skor
##skort
##skosten
##skra
##skraft
##skreis
##sku
##skus
##sky
##ská
##ské
##sküdar
##ský
##ską
##sl
##sla
##slaan
##slach
##slag
##slagen
##slam
##slan
##sland
##slar
##slas
##slat
##slav
##slaw
##sle
##sleden
##sleg
##slen
##sler
##sles
##sley
##sli
##slich
##slid
##slig
##sliga
##slik
##slin
##sling
##slit
##slo
##slog
##slos
##slu
##sluit
##sluiting
##slut
##sm
##sma
##smaatregelen
##sman
##smann
##smark
##smarkt
##smas
##smat
##smaterial
##smaßnahmen
##sme
##smen
##smerk
##smes
##smet
##smi
##smiddel
##smiddelen
##sminister
##smith
##smittel
##smitteln
##smo
##sms
##smu
##smus
##smöglichkeiten
##sn
##sna
##sne
##snek
##sner
##snes
##sni
##snio
##sniveau
##sno
##snog
##sność
##snu
##snummer
##sny
##snę
##so
##soa
##social
##sod
##soe
##soen
##sofa
##sofi
##soft
##sog
##soi
##soj
##sok
##soko
##sol
##sola
##sole
##soles
##soli
##solo
##som
##soma
##some
##somes
##somme
##somo
##son
##sona
##sone
##song
##soni
##sonik
##sono
##sons
##sont
##sonu
##soo
##soort
##sor
##sora
##sore
##sorganisation
##sorge
##sori
##soria
##soro
##sors
##sort
##sos
##sot
##sou
##source
##sov
##sowa
##sowane
##sowano
##sowany
##soy
##sozi
##sp
##spa
##space
##span
##spark
##spartner
##spective
##spede
##spel
##spelen
##spen
##spera
##speriode
##sphate
##sphere
##sphorus
##spiegel
##spiel
##spiele
##spielen
##spieler
##spil
##spin
##splan
##spo
##spolitik
##spon
##spor
##sport
##spraak
##sprache
##spraken
##spray
##spreis
##spreken
##spring
##sprocessen
##sprogram
##sprojekt
##sprong
##sprozess
##spruit
##sprung
##spunkt
##spy
##sque
##sques
##sr
##sra
##sraad
##srael
##srat
##sraum
##srecht
##srechten
##sret
##sri
##srom
##srum
##ss
##ssa
##ssage
##ssait
##ssal
##ssan
##ssant
##ssante
##ssar
##sschutz
##sse
##ssed
##ssel
##ssem
##ssement
##ssen
##ssensor
##ssent
##sser
##sserie
##sses
##sset
##sseur
##ssi
##ssia
##sside
##ssie
##ssig
##ssigt
##ssima
##ssime
##ssimi
##ssimo
##ssin
##ssing
##ssion
##ssione
##ssis
##sso
##ssol
##sson
##ssons
##ssor
##ssors
##ssos
##ssot
##sst
##ssted
##sstelle
##sstellen
##ssten
##sstil
##ssu
##ssum
##ssus
##ssystem
##ssà
##ssão
##ssä
##ssé
##st
##sta
##staa
##staan
##staand
##staande
##staat
##stab
##stable
##stache
##stad
##stada
##staden
##stado
##stadt
##stag
##stage
##staj
##staje
##stal
##stala
##stali
##stall
##stalla
##stalling
##stam
##stamme
##stan
##stana
##stance
##stand
##standa
##standen
##standing
##stane
##stanek
##stans
##stant
##stante
##stanz
##stap
##star
##stare
##stari
##stars
##start
##stas
##stasi
##stasyon
##stat
##stata
##state
##stati
##static
##station
##stato
##statu
##status
##stava
##stavan
##staven
##staw
##stawa
##stawia
##stawił
##stało
##ste
##stea
##stead
##sted
##stede
##stedt
##steek
##steem
##steen
##stehen
##stehende
##stehenden
##steiger
##steil
##stein
##steine
##stej
##stek
##steking
##steko
##stel
##steld
##stele
##stellar
##stelle
##stellen
##steller
##stelling
##stellings
##stellt
##stellte
##stellung
##stellungen
##stelsel
##stem
##stemperatur
##sten
##stenen
##steno
##stens
##stenza
##step
##ster
##stered
##steri
##steria
##sterio
##stern
##stero
##sters
##stery
##stes
##stest
##stet
##steuer
##stev
##sthetic
##sti
##stia
##stian
##stic
##stica
##stical
##sticas
##stice
##stich
##stiche
##stici
##stick
##stico
##stida
##stido
##stie
##stieg
##sties
##stift
##stig
##stige
##stiger
##stigi
##stii
##stijl
##stik
##stika
##stike
##stil
##stila
##stili
##stille
##stiller
##stilo
##stima
##stimmung
##stin
##stina
##stine
##sting
##stino
##stio
##stion
##stique
##stiques
##stir
##stis
##stisch
##stische
##stischen
##stit
##stita
##stite
##stiti
##stiu
##stiya
##stka
##stki
##stle
##stler
##stma
##stmi
##stna
##stne
##stni
##sto
##stock
##stod
##stoel
##stof
##stofa
##stoff
##stoffe
##stoffen
##stoj
##stoja
##stojn
##stok
##stoko
##stol
##stola
##stom
##ston
##stone
##stones
##stop
##stor
##stora
##store
##storm
##stos
##stot
##stou
##stown
##stoß
##stości
##stość
##str
##stra
##straat
##strada
##strado
##strados
##straf
##stral
##strand
##strar
##stras
##strat
##strate
##straße
##stre
##stream
##street
##stres
##stri
##stria
##string
##stris
##stro
##stroj
##strom
##stroom
##strophe
##stru
##struktur
##strum
##strup
##sträger
##ström
##sts
##stu
##stub
##studio
##stue
##stui
##stuk
##stukken
##stul
##stum
##stun
##stunden
##stung
##stur
##stura
##stus
##stuu
##stva
##stve
##stvo
##stw
##stwa
##stwem
##stwie
##stwo
##sty
##stych
##styczne
##stycznej
##styczny
##stycznych
##style
##stym
##styn
##styr
##stá
##stä
##stände
##ständig
##ständige
##ständigen
##stärke
##stät
##stätte
##stätten
##stère
##sté
##stí
##stów
##stö
##stück
##stücke
##stą
##stę
##su
##sua
##suan
##sub
##subay
##suche
##suchen
##sucht
##sud
##sue
##sues
##suh
##suit
##sując
##suk
##suke
##suki
##sul
##sula
##sulat
##sule
##sulo
##sult
##sulta
##sultan
##sultant
##sulti
##sum
##sume
##sumi
##sumo
##sun
##suna
##sund
##sunda
##sundan
##sung
##sungen
##sunk
##sunternehmen
##sunu
##sunun
##sunuz
##sup
##sur
##sura
##sure
##suri
##sus
##susa
##sut
##suwa
##suz
##suzluk
##sva
##svar
##sve
##svei
##sverfahren
##svertrag
##svika
##sville
##svis
##svoll
##svolle
##svoorwaarden
##svorgänge
##swa
##swagen
##swe
##sweise
##swert
##swerte
##sworth
##sy
##sya
##syada
##syal
##syan
##syen
##syk
##syn
##syna
##syny
##syon
##syona
##syone
##sys
##systeem
##system
##systems
##syum
##sz
##sza
##szak
##szcz
##szcza
##szcze
##szczenia
##szczenie
##szczeniu
##szczeń
##szczone
##szczy
##sze
##szedł
##szego
##szeit
##szeiten
##szej
##szek
##szem
##szenia
##szenie
##szentrum
##szer
##szi
##szka
##szki
##szne
##sznie
##szny
##szone
##szony
##szor
##szości
##szt
##ształcenia
##ształcenie
##sztyn
##szu
##szy
##szych
##szym
##szó
##szą
##szę
##szła
##szło
##szły
##sà
##sá
##sán
##sável
##são
##sä
##sätt
##sätze
##säuren
##sè
##sé
##séder
##sée
##sées
##sén
##sés
##sê
##sí
##sía
##sível
##sî
##só
##sów
##sões
##sör
##sú
##sü
##sük
##sül
##sün
##süz
##sā
##są
##sı
##sın
##sına
##sında
##sından
##sını
##sının
##sınız
##sıyla
##sız
##sızlık
##sızın
##sław
##sława
##sły
##t
##ta
##taa
##taal
##taan
##taande
##taar
##taat
##tab
##taba
##tabanı
##tabil
##table
##tables
##tabu
##tac
##tacak
##tace
##tach
##tacha
##tacht
##taci
##tación
##tact
##tad
##tada
##tadas
##tade
##tadi
##tado
##tador
##tados
##tadt
##tadır
##tae
##tafel
##tag
##taga
##tage
##tagen
##tages
##tago
##tags
##tah
##tai
##tail
##tails
##tain
##taine
##tair
##taire
##taires
##tairs
##tais
##tait
##taj
##taja
##taje
##tajn
##taju
##tak
##taka
##take
##taki
##tako
##taks
##taku
##tal
##tala
##talan
##talar
##tale
##talen
##taler
##tales
##tali
##talige
##talk
##tall
##talo
##tals
##talt
##tam
##tama
##tambo
##tame
##tament
##tamente
##tamento
##tami
##tamiento
##tamine
##tamme
##tamo
##tamp
##tan
##tana
##tanan
##tanas
##tance
##tancia
##tancias
##tand
##tanda
##tande
##tanden
##tandi
##tanding
##tando
##tane
##tanen
##tang
##tani
##tania
##tanie
##tanke
##tano
##tans
##tansi
##tant
##tante
##tantes
##tanti
##tantivo
##tanto
##tants
##tanu
##tany
##tanya
##tanza
##tanze
##tanı
##tao
##tap
##tapa
##tape
##tar
##tara
##tarak
##taran
##tarczający
##tare
##tarea
##taren
##tari
##taria
##tarian
##tarias
##tarie
##tario
##tarios
##taris
##taro
##tars
##tart
##tarten
##tarti
##taru
##tary
##tarza
##tas
##tasche
##taschen
##tase
##tasi
##tasie
##taste
##tasy
##tasyon
##tası
##tat
##tata
##tate
##tated
##tatem
##tati
##tatic
##tatie
##tatik
##tating
##tation
##tations
##tatis
##tativ
##tative
##tato
##tator
##tatori
##tats
##tatt
##tattu
##tatu
##tatur
##taty
##tató
##tau
##tauchen
##tausch
##tav
##tava
##tavan
##tave
##tavo
##taw
##tawa
##tawan
##tax
##tay
##taya
##tayız
##taz
##tazione
##tazioni
##tação
##taí
##tać
##tał
##tała
##tań
##taş
##tb
##tba
##tbu
##tce
##tch
##tchen
##tches
##tchi
##td
##tda
##tdi
##tdı
##te
##tea
##teach
##tead
##teak
##teal
##team
##tean
##tear
##tease
##teau
##teb
##tec
##teca
##tece
##tech
##teche
##technik
##techniki
##technology
##teci
##teco
##teczna
##tecznie
##ted
##tede
##tedir
##tedra
##tee
##teek
##teel
##teen
##teenth
##teer
##teerd
##teerde
##tees
##teg
##tega
##tegi
##tegn
##tego
##tegui
##tehen
##tei
##teigen
##teil
##teile
##teilen
##teille
##teils
##teilung
##tein
##teira
##teiro
##teist
##teit
##teiten
##tej
##teja
##tejo
##tek
##teka
##teke
##teken
##tekening
##teki
##tekin
##teknik
##teko
##teks
##tekt
##tel
##tela
##teld
##tele
##telefon
##telen
##teles
##teli
##telia
##telijk
##telis
##tell
##tella
##telle
##tellen
##teller
##telli
##telling
##tellingen
##tello
##tellung
##teln
##telne
##telo
##telsel
##telt
##telu
##tely
##tem
##tema
##teme
##tement
##temo
##tempe
##temperatur
##temperatuur
##tempo
##ten
##tena
##tenant
##tend
##tenda
##tende
##tendo
##tendu
##tene
##tenen
##tener
##tenere
##teng
##tenga
##tengono
##tenha
##teni
##tenibilidad
##tenida
##tenido
##tenie
##teniendo
##tenimiento
##tenir
##tenne
##tennis
##teno
##tens
##tense
##tent
##tenta
##tente
##tenti
##tento
##tenu
##tenus
##tenuto
##tenção
##tení
##teo
##tep
##tepe
##tequilla
##ter
##tera
##teral
##teran
##terapeut
##terapi
##terapia
##terar
##teras
##tere
##tered
##terem
##teren
##terende
##terer
##teres
##teri
##teria
##terial
##terie
##teries
##terii
##terije
##tering
##terio
##teris
##terium
##termijn
##tern
##terna
##terne
##ternet
##tero
##teros
##terra
##terranea
##terre
##terrein
##terrestre
##terrestres
##terránea
##ters
##terse
##tert
##terte
##tery
##terà
##tería
##tes
##tesa
##tesch
##tese
##tesi
##tesis
##tesse
##test
##teste
##tet
##teta
##tete
##teten
##teter
##teti
##tett
##tette
##tetu
##teu
##teur
##teurs
##teus
##tev
##teve
##tevi
##tex
##text
##texte
##tey
##teyiz
##tez
##teza
##teze
##tezi
##tezza
##tford
##tga
##tge
##tgen
##tges
##th
##tha
##thain
##thal
##thala
##tham
##than
##thana
##thane
##thar
##thas
##the
##thea
##theater
##theca
##theek
##theid
##thek
##thema
##theni
##theo
##ther
##therapie
##therapy
##thermal
##thesis
##thet
##theti
##thi
##thie
##thin
##thing
##thio
##thir
##thlon
##tho
##thon
##thorn
##thre
##thromycin
##through
##ths
##thu
##thur
##thus
##thy
##thèque
##ti
##tia
##tiable
##tiae
##tial
##tiam
##tian
##tias
##tiau
##tib
##tiba
##tible
##tic
##tica
##tical
##tically
##ticamente
##ticas
##tice
##tich
##tiche
##tici
##tick
##tico
##ticos
##tics
##ticu
##tid
##tida
##tidas
##tide
##tiden
##tides
##tido
##tidão
##tie
##tief
##tiek
##tieke
##tiel
##tiele
##tiem
##tien
##tiende
##tiene
##tient
##tier
##tiera
##tieren
##tieri
##tiers
##tiert
##ties
##tiese
##tiet
##tiev
##tieve
##tiewe
##tif
##tifika
##tifs
##tig
##tiga
##tige
##tigen
##tigheid
##tigi
##tigkeit
##tigo
##tigt
##tih
##tii
##tij
##tija
##tijas
##tijd
##tijo
##tijos
##tik
##tika
##tike
##tiker
##tiko
##tiks
##tikt
##tiku
##til
##tila
##tildi
##tile
##tilen
##tiles
##tili
##tilidad
##tilidade
##tiline
##tilise
##tility
##tilità
##till
##tilla
##tille
##tilo
##tim
##tima
##time
##timenti
##timento
##timer
##times
##timet
##timi
##timin
##timit
##timme
##timmen
##timo
##timos
##tims
##timu
##tin
##tina
##tinas
##tinde
##tine
##tinen
##tines
##ting
##tinga
##tingen
##tingi
##tings
##tingu
##tinho
##tini
##tinis
##tinn
##tino
##tins
##tint
##tinu
##tinê
##tio
##tion
##tional
##tione
##tionen
##tioner
##tiones
##tionis
##tions
##tious
##tip
##tipi
##tipo
##tipos
##tipp
##tips
##tiq
##tique
##tiques
##tir
##tira
##tirdi
##tire
##tiri
##tiro
##tirol
##tis
##tisa
##tisch
##tische
##tischen
##tise
##tised
##tisen
##tish
##tisi
##tism
##tisme
##tismo
##tiso
##tist
##tista
##tiste
##tisti
##tit
##tita
##titas
##tite
##titel
##titi
##tition
##titis
##tito
##tituir
##titut
##tiu
##tium
##tius
##tiv
##tiva
##tivas
##tivat
##tive
##tives
##tivi
##tividade
##tività
##tivité
##tivo
##tivos
##tiya
##tiye
##tiz
##tiza
##tize
##tized
##tizo
##tière
##tiú
##tiği
##tja
##tje
##tjes
##tka
##tkach
##tkami
##tkan
##tke
##tken
##tki
##tkiem
##tkin
##tko
##tkom
##tkowe
##tkowej
##tkowy
##tkowych
##tku
##tków
##tkö
##tką
##tkę
##tl
##tla
##tlan
##tland
##tlar
##tları
##tle
##tled
##tleme
##tlen
##tler
##tleri
##tles
##tlet
##tley
##tli
##tlich
##tliche
##tlichen
##tlig
##tlik
##tling
##tlo
##tlon
##tlu
##tly
##tlı
##tm
##tma
##tmak
##tman
##tması
##tmaya
##tme
##tmek
##tmen
##tment
##tmete
##tmi
##tmış
##tn
##tna
##tnan
##tne
##tnego
##tnej
##tnem
##tner
##tni
##tnica
##tnice
##tnie
##tnik
##tnika
##tniki
##tnim
##tnis
##tno
##tności
##tność
##tnu
##tny
##tnych
##tnym
##tną
##to
##toa
##toan
##tob
##tocht
##tochten
##toci
##tock
##tod
##tode
##toe
##tof
##toff
##tofo
##tog
##toi
##toin
##toio
##toir
##toire
##toires
##toista
##tok
##toka
##toki
##toko
##toku
##tol
##tola
##tole
##toli
##tolic
##tolo
##tologi
##tologia
##tologie
##tology
##tom
##toma
##tomat
##tome
##tomi
##tomia
##tomis
##tomy
##ton
##tona
##tonde
##tone
##toneal
##tonen
##tones
##tong
##tonga
##toni
##tonic
##tono
##tons
##tonu
##too
##tool
##toon
##top
##topo
##tops
##tor
##tora
##toral
##tore
##toren
##tores
##tori
##toria
##torial
##toriale
##toriamente
##torias
##torie
##torii
##torin
##torio
##torios
##toris
##torit
##torium
##torius
##torm
##torn
##torno
##toro
##tors
##toru
##tory
##torów
##tos
##tosa
##tose
##tosis
##toso
##tost
##tosta
##tot
##tota
##toti
##tou
##tour
##touren
##tov
##tow
##towane
##towania
##towanie
##towany
##tować
##towe
##tower
##town
##towy
##toy
##tości
##tość
##tp
##tr
##tra
##traal
##traat
##track
##tract
##trada
##trade
##trado
##trados
##trag
##tragen
##tragung
##trai
##train
##trainer
##training
##tral
##trale
##trali
##tram
##tran
##trand
##trano
##transport
##trar
##trare
##tras
##trat
##trata
##trate
##trati
##tration
##trato
##tratti
##trau
##tray
##trazione
##traße
##tre
##tream
##treden
##treding
##tree
##treer
##tref
##treffen
##trek
##trekken
##trekking
##trem
##tren
##trend
##trent
##trer
##tres
##tret
##treten
##tri
##tria
##trial
##tric
##trica
##trice
##trices
##trici
##trick
##trico
##trie
##trik
##trim
##trin
##trina
##tring
##trip
##tris
##trist
##trit
##tritt
##trix
##trizes
##tro
##troch
##trol
##trom
##tron
##trone
##tronic
##tronik
##trop
##tros
##trou
##tru
##truation
##trucción
##truct
##truction
##truire
##truje
##trul
##trum
##trup
##trus
##trust
##trução
##try
##tryk
##tryny
##trz
##trze
##trá
##träge
##träger
##trè
##tré
##tría
##tró
##tröm
##trú
##trą
##ts
##tsa
##tsam
##tsch
##tschland
##tse
##tsen
##tseng
##tser
##tsev
##tsha
##tshe
##tsi
##tsin
##tsiz
##tsje
##tska
##tske
##tski
##tsko
##tsma
##tso
##tst
##tsu
##tswe
##tsy
##tt
##tta
##ttak
##ttal
##ttam
##ttamento
##ttan
##ttanti
##ttar
##ttare
##ttava
##tte
##tted
##ttel
##ttem
##tten
##tter
##ttere
##ttered
##tteri
##tters
##ttes
##ttet
##tti
##ttin
##tting
##ttir
##ttis
##ttiv
##ttiva
##ttivare
##ttivat
##ttivi
##ttività
##ttivo
##ttiği
##tto
##tton
##ttor
##ttore
##ttori
##tts
##ttu
##ttua
##ttun
##ttur
##ttura
##tty
##ttı
##tu
##tua
##tual
##tuale
##tuali
##tuan
##tuar
##tub
##tuba
##tube
##tubo
##tuch
##tucket
##tucu
##tud
##tuda
##tude
##tudes
##tudi
##tudine
##tudini
##tudio
##tudo
##tue
##tuel
##tuele
##tuelle
##tuen
##tuer
##tues
##tuga
##tuh
##tui
##tuigen
##tuin
##tuire
##tuit
##tuito
##tuje
##tuk
##tul
##tula
##tulan
##tule
##tuli
##tulo
##tulos
##tulu
##tum
##tuma
##tumi
##tumo
##tums
##tumu
##tun
##tuna
##tune
##tung
##tungen
##tuni
##tunk
##tuno
##tuo
##tuose
##tuoso
##tup
##tur
##tura
##turar
##turas
##turat
##turated
##turato
##ture
##turen
##tures
##turi
##turing
##turismo
##turk
##turm
##turn
##turno
##turo
##turu
##tury
##turze
##tus
##tusa
##tusi
##tust
##tuste
##tut
##tuta
##tute
##tuti
##tuto
##tutto
##tuu
##tuur
##tuva
##tuvo
##tuz
##tuzionale
##tuzione
##tv
##tva
##tve
##tver
##tverk
##tvi
##tvo
##tw
##twa
##twe
##twem
##twie
##two
##twoord
##twortet
##twę
##txa
##txea
##ty
##tya
##tych
##tyczna
##tyczne
##tycznego
##tycznej
##tycznie
##tyczność
##tyczny
##tycznych
##tycznym
##tyczną
##tyd
##tyf
##tyk
##tyka
##tyki
##tyl
##tyle
##tym
##tymo
##tyn
##tyny
##typ
##type
##typen
##types
##typing
##tyr
##tys
##tyt
##tywa
##tywne
##tz
##tza
##tze
##tzen
##tzer
##tzi
##tzia
##tzo
##tzt
##tzu
##tzung
##tà
##tá
##tál
##tám
##tán
##tár
##tária
##tárias
##tário
##tários
##tási
##tát
##tável
##tân
##tão
##tä
##tämme
##tän
##tänden
##tär
##tät
##tè
##tère
##té
##tée
##téis
##tél
##tém
##tén
##tér
##téri
##térie
##tés
##tési
##tê
##tên
##të
##tì
##tí
##tía
##tín
##tív
##tî
##tò
##tó
##tól
##tón
##tória
##tório
##tórios
##tów
##tô
##tö
##tön
##tör
##törü
##tù
##tú
##tü
##tücher
##tük
##tür
##türe
##tā
##tą
##tąpi
##tę
##tępne
##tępnej
##tępstwa
##tı
##tıcı
##tık
##tılan
##tılar
##tıldı
##tılması
##tılmış
##tılı
##tım
##tın
##tıp
##tır
##tıyor
##tığı
##u
##ua
##uab
##uación
##uad
##uada
##uado
##uador
##uag
##uai
##uaire
##uais
##uaj
##ual
##uale
##uali
##ualität
##ualmente
##ualne
##uam
##uan
##uana
##uang
##uani
##uant
##uante
##uar
##uara
##uard
##uardi
##uardo
##uare
##uari
##uario
##uas
##uat
##uata
##uate
##uation
##uator
##uav
##uação
##ub
##uba
##uban
##ubare
##ubas
##ubation
##ubator
##ubay
##ube
##uben
##uber
##ubert
##ubi
##ubka
##ublik
##ubo
##ubt
##ubu
##uby
##uc
##uca
##ucat
##ucci
##ucciones
##ucción
##uce
##uch
##ucha
##uche
##uchen
##ucher
##uchi
##ucho
##ucht
##uchten
##uchy
##uci
##ucia
##ucian
##ucida
##ucido
##ucing
##ucir
##ución
##ucja
##uck
##uco
##ucon
##uct
##uctant
##uction
##uctive
##uctor
##ucu
##ucí
##ud
##uda
##udan
##udd
##uddin
##ude
##udel
##uden
##uder
##uderia
##udering
##uders
##udes
##udet
##udetto
##udi
##udia
##udicar
##udice
##udie
##udin
##udine
##uding
##udio
##udit
##udite
##uditi
##udku
##udnik
##udo
##udos
##uds
##udu
##udun
##udy
##udza
##udze
##udzi
##udzo
##ue
##uebe
##ued
##ueel
##uei
##ueira
##ueiro
##uel
##uela
##uele
##uelen
##uell
##uella
##uelle
##uelles
##uelo
##uels
##uelto
##uelve
##uem
##uen
##uena
##uencia
##uens
##uent
##uer
##uera
##uerde
##uerdo
##uere
##ueren
##uerg
##uerit
##uern
##uert
##uerzo
##ues
##uese
##uesi
##uesta
##uestas
##uesto
##uestos
##uestrian
##uet
##ueta
##uete
##uetes
##uette
##ueu
##ueus
##ueuse
##ueux
##ueve
##uez
##uf
##ufa
##ufanych
##ufe
##ufen
##uff
##ufficient
##ufi
##ufo
##uft
##ufu
##ug
##uga
##ugal
##ugan
##ugas
##ugat
##uge
##ugel
##ugen
##ugh
##ught
##ughter
##ughton
##ugi
##ugio
##ugle
##ugna
##ugo
##ugos
##ugt
##ugu
##ugur
##uh
##uha
##uhan
##uhe
##uhi
##uhr
##ui
##uia
##uid
##uido
##uie
##uier
##uiert
##uig
##uik
##uil
##uila
##uilla
##uille
##uilles
##uim
##uin
##uina
##uine
##uinen
##uing
##uinn
##uir
##uire
##uirrel
##uirt
##uis
##uisa
##uisen
##uisi
##uista
##uistic
##uistik
##uit
##uita
##uitable
##uite
##uito
##uity
##uj
##uja
##ujant
##ujar
##ujas
##uje
##ujem
##ujemy
##uji
##ujo
##ują
##ując
##ująca
##ujące
##ujący
##ujących
##uję
##uk
##uka
##ukan
##ukas
##uke
##uken
##uki
##uko
##ukom
##ukos
##uks
##ukt
##ukti
##uku
##ukur
##ukuru
##ul
##ula
##ulación
##ulada
##ulado
##ulai
##ulaire
##ulam
##ulan
##ulang
##ulans
##ulant
##ular
##ulare
##ulari
##ulas
##ulat
##ulata
##ulate
##ulated
##ulatie
##ulation
##ulative
##ulator
##ulay
##ulayan
##ulação
##ulações
##uld
##uldu
##ule
##uleer
##ulen
##ulent
##uler
##ulere
##ulering
##ules
##ulet
##uleux
##ulf
##ulho
##uli
##ulia
##ulico
##ulier
##ulik
##ulin
##ulina
##uline
##ulinum
##ulio
##ulir
##ulis
##ulit
##uliza
##ulja
##ulka
##ull
##ulla
##ullah
##ullar
##ulle
##ullen
##uller
##ulli
##ullin
##ulling
##ullo
##ulman
##ulmani
##ulması
##ulmuş
##ulo
##ulon
##ulos
##ulosa
##ulose
##ulpa
##uls
##ulsa
##ulsion
##ulsive
##ulsión
##ult
##ulta
##ultat
##ulte
##ulti
##ultura
##ulture
##ulu
##ulum
##ulun
##ulung
##ulur
##ulus
##ulwe
##uly
##ulär
##ulé
##ulée
##uló
##um
##uma
##umably
##umado
##umai
##umam
##uman
##umana
##umar
##umas
##umat
##umb
##umba
##umbent
##umber
##umbi
##umbo
##umbu
##umci
##ume
##umen
##ument
##umer
##umes
##umi
##umia
##umin
##umine
##umis
##umlar
##ummer
##umo
##umon
##umos
##ump
##umpe
##umprimento
##umption
##ums
##umst
##umu
##umur
##umus
##umwa
##un
##una
##unale
##unan
##unar
##unas
##unat
##unca
##unci
##uncia
##und
##unda
##undan
##unde
##unden
##under
##undi
##undir
##undo
##unds
##undu
##undum
##undus
##une
##unea
##unek
##unen
##uner
##unes
##ung
##unga
##ungan
##unge
##ungen
##ungi
##ungo
##ungsi
##ungu
##uni
##unia
##unicaciones
##unicações
##unidos
##unie
##unii
##unika
##unin
##uning
##unio
##union
##unis
##unista
##unit
##unite
##uniti
##unja
##unk
##unka
##unki
##unkt
##unku
##unn
##unna
##unni
##uno
##unod
##uns
##unsa
##unsi
##unt
##unta
##untar
##unte
##unten
##unter
##unternehmen
##unti
##unting
##unto
##unton
##untos
##untu
##unu
##unum
##unun
##uny
##unya
##unzi
##uo
##uol
##uoli
##uon
##uona
##uos
##uosa
##uose
##uosi
##uoso
##uot
##uoti
##uous
##uove
##up
##upa
##upage
##upan
##upas
##upat
##upati
##upe
##upen
##uper
##upi
##upil
##upili
##upio
##upni
##upo
##upone
##upp
##ups
##upu
##upy
##uq
##ur
##ura
##uraa
##urable
##uración
##urada
##urado
##urage
##urah
##ural
##uran
##urant
##urar
##urare
##uras
##urat
##urata
##uration
##urau
##uraw
##urazione
##uração
##urbation
##urd
##urde
##urdi
##ure
##urea
##ured
##urei
##urem
##uren
##urent
##urer
##ures
##urez
##urf
##urg
##urga
##urge
##urgi
##urgia
##urgie
##urgy
##uri
##uria
##urie
##urig
##urige
##urii
##urile
##urin
##uring
##urio
##uris
##urism
##urisme
##urit
##urita
##urite
##uriti
##urity
##urk
##urka
##urlaub
##urma
##urn
##urno
##uro
##uron
##uropa
##uros
##urou
##urra
##urre
##urrection
##urrir
##urs
##urse
##urso
##urst
##urt
##urta
##urteilung
##urto
##uru
##urul
##urum
##urun
##urus
##urwa
##ury
##urze
##uré
##urée
##urą
##urę
##us
##usa
##usal
##usalem
##usan
##usar
##usas
##uscht
##use
##used
##usel
##usement
##usen
##user
##uses
##ush
##usha
##ushi
##ushu
##usi
##usia
##usias
##usie
##usies
##usin
##using
##usio
##usion
##usis
##usius
##usión
##usk
##uska
##uske
##usko
##usku
##usly
##uso
##usos
##uss
##ussa
##usse
##ussen
##ussia
##ust
##usta
##ustada
##ustan
##ustar
##uste
##usten
##uster
##ustes
##usti
##ustizia
##usto
##ustos
##ustra
##ustrazioni
##ustu
##usty
##ustíveis
##usu
##usun
##usy
##usz
##usza
##uszu
##ut
##uta
##utab
##utable
##utación
##utada
##utado
##utamine
##utan
##utano
##utant
##utar
##utare
##utas
##utat
##utati
##utatie
##utation
##utational
##utav
##utazione
##utação
##ute
##uted
##utek
##uten
##uter
##utern
##uters
##utes
##utet
##uteti
##uth
##uthe
##utho
##uti
##utia
##utica
##uticas
##utico
##uticos
##utie
##utim
##utin
##utina
##uting
##ution
##utis
##utiu
##utiv
##utiva
##utna
##utne
##utni
##uto
##utom
##uton
##utor
##utora
##utores
##utos
##utou
##utra
##utri
##uts
##utsa
##utse
##utt
##utta
##utti
##utto
##uttore
##uttu
##utu
##utum
##utur
##utus
##uty
##utz
##utzen
##utá
##uté
##utí
##utó
##uu
##uum
##uun
##uur
##uus
##uut
##uv
##uva
##uvad
##uvant
##uvar
##uvas
##uvat
##uve
##uver
##uves
##uvi
##uvia
##uvien
##uvin
##uvo
##uvre
##uvres
##uw
##uwa
##uwal
##uwar
##uważył
##uwd
##uwe
##uwen
##uwi
##uwing
##uws
##uwse
##uwt
##ux
##uxo
##uy
##uya
##uyan
##uye
##uyla
##uyo
##uyor
##uyu
##uyucu
##uz
##uza
##uze
##uzi
##uzido
##uzidos
##uzie
##uzione
##uzir
##uzo
##uzu
##uzun
##uzzi
##uário
##uç
##ução
##uções
##ué
##uée
##ués
##uí
##uía
##uída
##uídos
##uït
##uña
##uğu
##uł
##uła
##uły
##uń
##uş
##uż
##uża
##uși
##v
##va
##vaa
##vaan
##vaar
##vaart
##vable
##vac
##vaca
##vación
##vad
##vada
##vadas
##vade
##vader
##vaders
##vades
##vadi
##vado
##vador
##vados
##vae
##vaga
##vagant
##vage
##vah
##vai
##vain
##vais
##vait
##vaj
##vajal
##vak
##vaka
##vakantie
##val
##vala
##vald
##vale
##valec
##valence
##valent
##valente
##valet
##valg
##vali
##vall
##valla
##valle
##vallen
##valo
##valora
##valt
##valu
##valuta
##vam
##vament
##vamente
##vamento
##vami
##vamo
##vamos
##vams
##van
##vana
##vanan
##vance
##vand
##vanda
##vane
##vang
##vangeli
##vani
##vania
##vanie
##vankelijk
##vann
##vano
##vans
##vansa
##vant
##vante
##vanya
##var
##vara
##varas
##vard
##vare
##varen
##vari
##varing
##vario
##varo
##varon
##vars
##vart
##vary
##varı
##vas
##vascular
##vase
##vasi
##vasive
##vask
##vast
##vasta
##vasti
##vat
##vata
##vate
##vated
##vati
##vatif
##vatio
##vation
##vato
##vatten
##vatting
##vatu
##vau
##vaux
##vava
##vay
##vaya
##vação
##vca
##vce
##vci
##vcu
##vd
##vda
##vde
##ve
##vea
##vec
##ved
##veda
##vede
##veden
##vedi
##vedo
##vedra
##vedu
##vee
##veel
##veen
##veer
##veerd
##veg
##vega
##vegar
##veglianza
##vei
##veiligde
##veillance
##veis
##veita
##vej
##veje
##vek
##veki
##vekt
##vel
##vela
##veld
##vele
##velen
##veler
##veli
##velin
##vell
##vella
##velle
##velli
##velmente
##velo
##velope
##vels
##velse
##velt
##vely
##velé
##vem
##vement
##ven
##vena
##venant
##vence
##vencia
##venciones
##venció
##vención
##vend
##vende
##vene
##venes
##veni
##venie
##venient
##venir
##venire
##venis
##veno
##vens
##vensi
##vent
##venta
##ventar
##vente
##venti
##ventie
##vention
##ventionelle
##ventionen
##ventions
##ventive
##vento
##ventura
##venture
##venu
##venus
##venuti
##venzione
##venção
##venções
##vení
##veo
##ver
##vera
##verband
##verbindung
##verbod
##verbot
##verbrauch
##verbruik
##verd
##verde
##verdi
##vere
##vered
##verein
##veren
##veres
##verf
##verfahren
##vergoeding
##verhalten
##verhaltens
##verhältnis
##veri
##vering
##verk
##verka
##verkauf
##verkeer
##verkehr
##verklaring
##verlener
##verleners
##verley
##vermogen
##vern
##verne
##vero
##veron
##verre
##vers
##versa
##versammlung
##versari
##versario
##verse
##verses
##versi
##versicherung
##versie
##version
##versione
##verso
##versorgung
##vert
##verte
##verter
##vertering
##verti
##vertrag
##vertrouwen
##veru
##verwaltung
##very
##verzekering
##verà
##ves
##vesa
##vese
##vesi
##vessa
##vest
##vesti
##vet
##veta
##vete
##veti
##vetica
##veto
##vett
##vette
##veu
##veur
##vex
##vey
##veyor
##vez
##veze
##vezi
##veç
##vi
##via
##viado
##viai
##vial
##vian
##viana
##viar
##viare
##vias
##viata
##viate
##viato
##vic
##vica
##vice
##vich
##vici
##vico
##vicu
##vid
##vida
##vidad
##vidade
##vidas
##vide
##viden
##video
##vides
##vidi
##vido
##vidor
##vidos
##vidu
##vie
##viel
##vien
##viendo
##viennent
##viens
##vient
##vier
##viera
##vieren
##vieron
##vies
##viesa
##viet
##vieto
##view
##vig
##viga
##vige
##viglia
##vih
##vii
##vija
##vik
##vika
##viki
##vikle
##viks
##vikt
##vil
##vila
##vile
##vilha
##vili
##vill
##villa
##ville
##viluppa
##vim
##vimi
##vimos
##vin
##vina
##vind
##vinde
##vinden
##vine
##vinen
##ving
##vinge
##vini
##vinne
##vino
##vins
##vint
##vinta
##vinti
##vinu
##viny
##vio
##vion
##vios
##vir
##vira
##vire
##viri
##viro
##virus
##vis
##visa
##visar
##vise
##vised
##viser
##vises
##viseur
##vish
##visi
##visible
##visie
##vision
##visión
##viso
##visor
##vissa
##vist
##vista
##viste
##vistes
##visti
##visão
##vit
##vita
##vitab
##vitan
##vitas
##vitat
##vitate
##vite
##vitel
##viti
##vito
##vitt
##vitud
##vity
##vità
##vitä
##vité
##viu
##vium
##vius
##viva
##vive
##vivenza
##vivi
##viy
##viya
##viz
##vizi
##vizyon
##viária
##viç
##vió
##vić
##vka
##vki
##vl
##vla
##vlak
##vlar
##vle
##vlees
##vli
##vloed
##vloer
##vm
##vme
##vna
##vo
##voa
##voca
##vocado
##vocati
##vod
##voda
##vode
##vodi
##voed
##voeding
##voeg
##voegd
##voegdheid
##voer
##voerder
##voering
##vog
##voi
##voice
##voie
##voir
##vois
##vok
##voka
##vol
##vola
##volan
##volat
##vole
##volg
##volge
##volgende
##volgens
##volgere
##voli
##voll
##volle
##vollen
##volmente
##volo
##volta
##voltaic
##volte
##volti
##volto
##volu
##volva
##von
##vona
##vond
##vonden
##vonoid
##vons
##voo
##voor
##voorziening
##vor
##vora
##vore
##voren
##vori
##vorio
##vorm
##vormi
##vorming
##voro
##vorte
##voru
##vos
##vose
##vosi
##vost
##vot
##vota
##votas
##voti
##vou
##voud
##voudig
##voudige
##vous
##voy
##voz
##vr
##vra
##vraag
##vragen
##vrant
##vrat
##vre
##vrede
##vres
##vri
##vriendelijk
##vriendelijke
##vrier
##vrij
##vrije
##vrijheid
##vrir
##vro
##vru
##vré
##vs
##vse
##vsim
##vski
##vsky
##vt
##vte
##vu
##vue
##vui
##vuk
##vul
##vula
##vuldig
##vulo
##vum
##vun
##vur
##vura
##vus
##vut
##vuta
##vute
##vuti
##vuto
##vuz
##vuş
##vv
##vy
##vya
##vye
##vyn
##vyo
##và
##vá
##ván
##vár
##vári
##vás
##vão
##vät
##vè
##vère
##vé
##vée
##végi
##vél
##vém
##vén
##vér
##vére
##vés
##véti
##vê
##vên
##vência
##ví
##vía
##víc
##vín
##vî
##vó
##vā
##vą
##vı
##w
##wa
##waa
##waan
##waar
##waarde
##waarden
##waardig
##waardige
##waardigheid
##waarts
##wable
##wach
##wachen
##wachsen
##wacht
##wachte
##wachting
##wacja
##wacji
##wad
##wada
##wadi
##wado
##wadzeniu
##wadzi
##wadzony
##wae
##wag
##waga
##wagan
##wagen
##wagens
##wagi
##wagon
##wah
##wahl
##wahlen
##wahrt
##wai
##wain
##waj
##waju
##wają
##wak
##waka
##wake
##wal
##wala
##walan
##wald
##wale
##wali
##walk
##wall
##walo
##walt
##waltschaft
##wam
##wami
##wamy
##wan
##wana
##wand
##wanda
##wandeln
##wandelt
##wandle
##wandt
##wandte
##wandten
##wane
##wanego
##wanej
##wang
##wanga
##wanger
##wani
##wania
##wanie
##waniem
##waniu
##wann
##wano
##want
##wany
##wanych
##wanym
##wanz
##waną
##wap
##wapen
##wapende
##war
##wara
##waran
##warcie
##ward
##wards
##ware
##waren
##wari
##waring
##wark
##warki
##warm
##warmen
##warming
##waro
##wart
##warta
##warte
##warty
##wartą
##waru
##warza
##was
##wash
##wasser
##wat
##wata
##watch
##wate
##water
##wati
##watt
##wave
##wawa
##way
##wayo
##ways
##waz
##wać
##wał
##wała
##wałem
##wało
##wały
##wań
##ważne
##ważniejsza
##ważyć
##wb
##wca
##wce
##wcy
##wcze
##wczy
##wczych
##wców
##wcą
##wcę
##wd
##wda
##wde
##wder
##we
##wear
##web
##wechsel
##wechselt
##wechslung
##weckt
##wed
##wede
##weder
##wedi
##wedstrijd
##wee
##weed
##weeg
##week
##ween
##weer
##weet
##weg
##wege
##wegen
##weging
##wego
##wegs
##weh
##wehr
##wei
##weier
##weigen
##weight
##weil
##weilen
##weiler
##weilig
##wein
##weis
##weise
##weisen
##weiser
##weist
##weisung
##weit
##weiß
##wej
##wek
##weke
##wekkend
##wekkende
##wel
##wela
##weld
##weldig
##wele
##weli
##well
##welle
##welo
##wels
##welt
##wem
##wen
##wencji
##wend
##wendbar
##wende
##wenden
##wendig
##wendung
##wene
##weng
##weni
##wens
##went
##wenti
##wento
##wer
##wera
##werb
##werbe
##werbung
##werden
##were
##wereld
##weren
##werfen
##wering
##werk
##werke
##werken
##werker
##werking
##werkt
##wero
##werp
##wers
##wersalny
##wersytet
##wert
##werte
##werten
##werth
##wertung
##wes
##wese
##wesen
##wesenheit
##west
##westen
##wet
##weta
##wete
##wetse
##wetter
##wey
##wezen
##wezi
##wf
##wg
##wga
##wha
##wheel
##where
##whi
##while
##white
##wi
##wia
##wiad
##wiam
##wiania
##wianie
##wiać
##wic
##wica
##wice
##wich
##wick
##wicklung
##wicy
##wicz
##wid
##wide
##widi
##wie
##wiec
##wiecki
##wiedz
##wiedzenia
##wiedział
##wiedź
##wiegend
##wielka
##wiem
##wienia
##wienie
##wier
##wierdza
##wierdzenia
##wierdzenie
##wierdzić
##wierdzone
##wierdzono
##wiesen
##wiet
##wife
##wig
##wige
##wih
##wii
##wijd
##wijk
##wijs
##wijze
##wijzen
##wijzing
##wik
##wika
##wiki
##wikkeling
##wil
##wila
##wile
##wili
##willig
##willige
##williger
##willigers
##wim
##wima
##wimmen
##win
##wina
##wind
##winden
##windende
##winder
##windi
##winding
##wine
##wing
##wings
##wini
##winkel
##wino
##wio
##wione
##wir
##wira
##wire
##wirken
##wirkt
##wirkung
##wiro
##wirtschaft
##wis
##wisa
##wise
##wiska
##wisseling
##wissen
##wissenschaften
##wist
##wistym
##wisz
##wit
##wita
##witan
##witch
##wite
##with
##witter
##witz
##witą
##wiya
##wiza
##wizja
##wizji
##wią
##wiązują
##wiązywać
##wić
##większa
##wił
##wj
##wk
##wka
##wkach
##wki
##wką
##wkę
##wl
##wler
##wm
##wma
##wn
##wna
##wne
##wned
##wnego
##wnej
##wni
##wnia
##wnicy
##wnie
##wnik
##wników
##wning
##wności
##wność
##wns
##wny
##wnych
##wnym
##wną
##wnętrzna
##wnętrzny
##wnętrzną
##wo
##woche
##wod
##wodu
##wody
##wodów
##wogen
##wohner
##wok
##woko
##wol
##wold
##wolf
##woli
##wolnie
##wolucji
##wolves
##wom
##woman
##won
##wona
##wone
##woners
##wong
##woning
##woningen
##wood
##woods
##woord
##woorden
##woordig
##woordiger
##word
##words
##worfen
##work
##working
##works
##world
##worm
##worpen
##wort
##worth
##worthy
##wory
##worzenia
##worzenie
##worzona
##worzyć
##worzył
##wotne
##wotnie
##wotnych
##woven
##wowane
##wować
##wowy
##wozu
##wołania
##wołać
##wołuje
##wości
##wość
##wp
##wr
##wra
##wri
##wright
##write
##writer
##writers
##writing
##written
##wrotnie
##wrócić
##wrót
##ws
##wska
##wski
##wskiego
##wskiej
##wson
##wszy
##wt
##wth
##wu
##wuj
##wuje
##wują
##wując
##wule
##wun
##wunden
##wung
##wur
##wurd
##wurf
##wus
##wusst
##wust
##wut
##wv
##ww
##wwa
##wwe
##wwer
##wy
##wych
##wyd
##wyk
##wym
##wymi
##wyn
##wyr
##wys
##wyso
##wyt
##wywania
##wywać
##wyższa
##wyższe
##wá
##wächen
##wälte
##wärts
##wäsche
##wé
##wód
##wójne
##wór
##wórz
##wów
##wóz
##wöhnen
##wöhnlich
##wörter
##wür
##würfe
##wā
##wą
##wę
##x
##xa
##xada
##xal
##xan
##xane
##xante
##xar
##xas
##xe
##xedo
##xel
##xele
##xeles
##xen
##xer
##xera
##xes
##xh
##xha
##xi
##xia
##xial
##xiang
##xias
##xib
##xic
##xica
##xicas
##xico
##xicos
##xid
##xida
##xide
##xido
##xie
##xies
##xiga
##xil
##xila
##xim
##xima
##ximo
##xin
##xina
##xing
##xio
##xion
##xis
##xista
##xit
##xión
##xler
##xma
##xo
##xon
##xone
##xor
##xos
##xou
##xp
##xs
##xt
##xta
##xter
##xtil
##xto
##xton
##xu
##xual
##xur
##xus
##xx
##xy
##xá
##xão
##xões
##y
##ya
##yab
##yabilir
##yacak
##yad
##yada
##yadi
##yado
##yaf
##yag
##yage
##yah
##yai
##yaj
##yak
##yaka
##yaki
##yal
##yala
##yalar
##yaları
##yali
##yalı
##yam
##yama
##yamin
##yan
##yana
##yane
##yang
##yangi
##yango
##yani
##yano
##yans
##yant
##yante
##yanı
##yanın
##yap
##yar
##yara
##yarak
##yard
##yards
##yari
##yas
##yasa
##yasha
##yası
##yasında
##yasının
##yat
##yata
##yati
##yatı
##yau
##yay
##yaya
##yağı
##yb
##yba
##ybe
##yby
##ybę
##yce
##ycerin
##ycerol
##ych
##ycia
##ycie
##ycin
##ycja
##ycje
##ycji
##ycją
##ycję
##ycle
##ycogen
##ycy
##ycyna
##yczki
##yczna
##yczne
##ycznego
##ycznej
##ycznie
##yczny
##ycznych
##ycznym
##ycznymi
##yczną
##yd
##yda
##ydami
##ydan
##yday
##yde
##yden
##yder
##ydi
##ydu
##ydują
##ydı
##ye
##year
##yebilir
##yecek
##yed
##yek
##yel
##yele
##yeli
##yem
##yen
##yendo
##yeni
##yent
##yente
##yentes
##yer
##yera
##yerek
##yeri
##yers
##yes
##yesi
##yet
##yete
##yeti
##yetinde
##yeur
##yev
##yeva
##yey
##yf
##yfa
##yfikacja
##yfikacji
##yg
##yga
##ygan
##ygu
##yh
##yhan
##yhi
##yi
##yici
##yid
##yik
##yil
##yile
##yili
##yim
##yin
##yina
##yine
##ying
##yini
##yinin
##yip
##yir
##yis
##yisi
##yit
##yiyo
##yiz
##yiş
##yj
##yja
##yje
##yjne
##yjnego
##yjnej
##yjny
##yjnych
##yjski
##yjskiej
##yk
##yka
##ykan
##ykanie
##yken
##yki
##ykle
##ykos
##yku
##yków
##yką
##ykła
##ykłą
##yl
##yla
##ylan
##ylar
##yle
##ylem
##ylen
##ylene
##yler
##yli
##ylik
##yll
##ylla
##ylle
##ylo
##ylvania
##yly
##ym
##yma
##ymalna
##ymalne
##ymalnej
##ymalny
##ymalną
##yman
##ymana
##ymas
##ymat
##yme
##yment
##ymes
##ymet
##ymi
##ymiz
##ymo
##yms
##ymu
##ymus
##ymy
##yn
##yna
##ync
##ynd
##yne
##ynes
##ynet
##yni
##ynie
##ynka
##ynki
##yno
##ynt
##ynthesis
##ynu
##yny
##yną
##yo
##yod
##yoda
##yog
##yok
##yoka
##yol
##yola
##yolları
##yolojik
##yolu
##yom
##yon
##yona
##yong
##yoni
##yono
##yonu
##yor
##yordu
##yorlar
##yorsunuz
##yorum
##yoruz
##yos
##yoshi
##yot
##yote
##you
##yp
##ypa
##ype
##yphosate
##ypt
##ypti
##yq
##yr
##yra
##yran
##yras
##yrat
##yre
##yri
##yria
##yrian
##yro
##yron
##yrs
##yrus
##ys
##ysa
##ysan
##yse
##ysel
##yser
##ysi
##ysis
##ysius
##ysk
##yska
##yskać
##yski
##yskiwania
##yskuje
##yso
##yson
##ysseus
##yst
##ysta
##ysteem
##ystem
##ysten
##ysti
##ysto
##ysty
##ystyczna
##ystyczne
##ystycznej
##ystyczny
##ystycznych
##ystycznym
##ystyczną
##ystyka
##ystyki
##ysu
##ysy
##ysz
##ysł
##yt
##yta
##ytat
##yte
##yter
##ytes
##ytet
##yth
##ytho
##yti
##ytic
##ytin
##ytis
##yto
##yton
##ytos
##ytu
##ytun
##ytus
##yty
##yu
##yuan
##yub
##yucu
##yud
##yuk
##yuki
##yul
##yum
##yuma
##yumu
##yun
##yung
##yup
##yur
##yus
##yut
##yw
##ywa
##ywacji
##ywania
##ywanie
##ywać
##ywe
##ywie
##ywio
##ywna
##ywne
##ywnego
##ywnej
##ywnie
##ywności
##ywność
##ywny
##ywnych
##ywną
##ywy
##ywów
##ywą
##yx
##yy
##yya
##yyah
##yyar
##yz
##yzacja
##yzacji
##yzują
##yá
##yè
##yé
##yí
##yó
##yú
##yü
##yüzü
##yć
##yı
##yıcı
##yıl
##yılan
##yım
##yın
##yıp
##yır
##yız
##ył
##yła
##yłając
##yłane
##yłkę
##yło
##yń
##yści
##z
##za
##zaak
##zaal
##zaam
##zaamheid
##zaan
##zab
##zaba
##zabal
##zac
##zach
##zaci
##zación
##zacja
##zacji
##zację
##zad
##zada
##zadas
##zade
##zado
##zador
##zados
##zag
##zaga
##zah
##zahl
##zahlen
##zahlung
##zai
##zain
##zaina
##zaine
##zaj
##zają
##zając
##zające
##zak
##zaka
##zake
##zaki
##zako
##zal
##zala
##zalar
##zale
##zali
##zalo
##zam
##zama
##zaman
##zame
##zamento
##zami
##zamo
##zamy
##zan
##zana
##zance
##zand
##zando
##zane
##zange
##zani
##zania
##zanie
##zaniu
##zanka
##zanki
##zano
##zans
##zant
##zante
##zantes
##zanu
##zany
##zanych
##zaną
##zao
##zar
##zara
##zare
##zaren
##zari
##zarra
##zarro
##zarse
##zaru
##zarı
##zas
##zasyon
##zat
##zata
##zate
##zati
##zation
##zato
##zator
##zatu
##zava
##zavan
##zawa
##zawskiej
##zawskim
##zaya
##zazione
##zação
##zać
##zał
##zała
##zało
##zały
##zb
##zba
##zbe
##zbu
##zca
##zcan
##zce
##zchen
##zchnia
##zcie
##zco
##zcza
##zczenia
##zczenie
##zczą
##zd
##zda
##zdan
##zde
##zdeki
##zden
##zdi
##zdo
##zdro
##zdu
##zdy
##zdą
##ze
##zea
##zeb
##zec
##zece
##zech
##zeci
##zed
##zedł
##zee
##zef
##zeg
##zeggen
##zego
##zehn
##zei
##zeichen
##zeichnen
##zeichnet
##zeichnung
##zeigen
##zeile
##zeit
##zeiten
##zeitig
##zeitung
##zej
##zejazd
##zek
##zeka
##zekać
##zeke
##zekera
##zeki
##zeko
##zel
##zela
##zelan
##zele
##zelf
##zelfde
##zeli
##zell
##zellen
##zelni
##zelo
##zels
##zelt
##zelwa
##zelwe
##zem
##zema
##zemes
##zen
##zena
##zend
##zende
##zenden
##zending
##zene
##zeni
##zenia
##zenie
##zeniem
##zeniu
##zeno
##zens
##zent
##zentrum
##zepam
##zeprowadzono
##zepływ
##zer
##zera
##zere
##zeren
##zeres
##zeri
##zero
##zers
##zert
##zerwa
##zes
##zesi
##zesne
##zesła
##zet
##zeta
##zete
##zeti
##zett
##zette
##zetten
##zetti
##zeu
##zeug
##zeugung
##zewa
##zewki
##zewodniczący
##zewodowy
##zeze
##zeć
##zeń
##ześnie
##zeża
##zg
##zga
##zgi
##zgin
##zględnie
##zgo
##zh
##zha
##zhe
##zhen
##zhi
##zhin
##zhou
##zi
##zia
##ziak
##zial
##ziale
##ziali
##zialmente
##zian
##ziana
##ziano
##ziar
##ział
##ziału
##ziałów
##zib
##zic
##zica
##zice
##zicht
##zici
##zid
##zida
##zidi
##zie
##ziehen
##ziehung
##ziej
##ziek
##ziel
##ziela
##zielenie
##ziell
##zielle
##ziellen
##zielone
##ziemy
##zien
##ziens
##zier
##ziera
##ziere
##zieren
##ziert
##zies
##ziet
##zież
##zif
##zifo
##zig
##ziga
##zige
##zigen
##ziger
##zii
##zij
##zijde
##zijdig
##zijdige
##zijds
##zijn
##zik
##zika
##ziki
##ziko
##zil
##zila
##zildi
##zile
##zili
##zilla
##zim
##zima
##zime
##zimi
##zimmer
##zimo
##zin
##zina
##zine
##zing
##zinga
##zinger
##zinho
##zini
##zinnige
##zino
##zins
##zint
##ziny
##zio
##zion
##ziona
##zional
##zionale
##zionali
##zionamento
##zionare
##zionati
##zionato
##zione
##zioni
##ziosa
##zioso
##zip
##zir
##zira
##ziri
##zis
##zise
##zisi
##zismo
##zist
##zisyon
##zit
##zita
##zite
##ziti
##zitutto
##ziu
##zium
##ziva
##zivi
##ziwa
##ziwe
##ziya
##ziyo
##zió
##zić
##zięcia
##ził
##zja
##zje
##zji
##zjoni
##zju
##zją
##zję
##zka
##zkach
##zkadza
##zke
##zki
##zkie
##zkiej
##zkiem
##zkim
##zko
##zkolwiek
##zkowe
##zku
##zky
##zką
##zkę
##zl
##zla
##zlan
##zlar
##zle
##zler
##zli
##zlich
##zliche
##zlik
##zling
##zlo
##zlu
##zm
##zma
##zmacnia
##zman
##zmas
##zmat
##zme
##zmek
##zmi
##zmin
##zmit
##zmo
##zmu
##zn
##zna
##znacznie
##znaczyć
##znaczył
##znaj
##znaje
##znak
##znali
##znam
##znane
##znania
##znanie
##znał
##zne
##znego
##znej
##zni
##znia
##znica
##znice
##znie
##znik
##znika
##zniki
##zno
##zności
##zność
##znu
##zny
##znych
##znym
##znymi
##zną
##zo
##zoa
##zocht
##zod
##zoek
##zoeken
##zoen
##zofrenia
##zog
##zogen
##zoi
##zok
##zol
##zola
##zole
##zoli
##zolo
##zom
##zon
##zona
##zondo
##zone
##zonego
##zonej
##zoni
##zonke
##zono
##zony
##zonych
##zonym
##zoną
##zoo
##zor
##zora
##zorem
##zorg
##zorgd
##zori
##zoro
##zoru
##zory
##zos
##zot
##zott
##zou
##zov
##zovi
##zowa
##zowana
##zowane
##zowania
##zowanie
##zowany
##zowanych
##zować
##zowe
##zowego
##zowie
##zowych
##zpi
##zpieczeń
##zpieczyć
##zr
##zra
##zs
##zsa
##zt
##zta
##ztam
##ztat
##ztatu
##ztałcenia
##zte
##ztek
##ztem
##zten
##zter
##zti
##ztu
##ztun
##ztwa
##ztwo
##zty
##ztó
##ztą
##zu
##zua
##zuar
##zuba
##zubauen
##zubereiten
##zubringen
##zuca
##zucić
##zucił
##zue
##zufinden
##zufügen
##zuführen
##zug
##zuga
##zugeben
##zugehen
##zuhalten
##zuje
##zują
##zujące
##zuk
##zuka
##zukaj
##zukać
##zuki
##zukiwanie
##zul
##zula
##zuladen
##zule
##zulegen
##zuli
##zulki
##zulu
##zum
##zuma
##zumel
##zumu
##zun
##zuna
##zunehmen
##zung
##zungen
##zur
##zura
##zure
##zuri
##zuro
##zurra
##zurri
##zuru
##zury
##zus
##zuschließen
##zusetzen
##zustellen
##zut
##zuty
##zuza
##zuzi
##zuć
##zva
##zve
##zvi
##zvo
##zw
##zwa
##zwe
##zwecken
##zwi
##zwolenia
##zwolenie
##zy
##zya
##zyby
##zych
##zycja
##zyjne
##zyk
##zym
##zyme
##zymi
##zymie
##zymy
##zyn
##zyna
##zyon
##zysta
##zystanie
##zyste
##zystnie
##zystwo
##zyt
##zywa
##zywania
##zywanie
##zywać
##zyć
##zył
##zyła
##zyż
##zyża
##zz
##zza
##zzam
##zzano
##zzante
##zzanti
##zzare
##zzat
##zzata
##zzate
##zzati
##zzato
##zzazione
##zzazioni
##zze
##zzel
##zzen
##zzeri
##zzi
##zzini
##zzle
##zzling
##zzo
##zzola
##zzon
##zzonte
##zzy
##zà
##zá
##zán
##zár
##zè
##zé
##zés
##zí
##zív
##zî
##zò
##zó
##zód
##zón
##zór
##zów
##zü
##züge
##züglich
##zą
##ząc
##zące
##zącego
##zący
##zących
##ząd
##ządzenia
##ządzenie
##zę
##zędzie
##zı
##zım
##zın
##zł
##zła
##zło
##zły
## 000
## a
## ap
## l
## o
## s
## г
##¢
##£
##¨
##ª
##®
##°
##°C
##°F
##°С
##±
##²
##³
##´
##µ
##¹
##º
##ºC
##¼
##½
##¾
##Á
##ÃO
##Ä
##Å
##Æ
##Ç
##ÇA
##ÇÃO
##É
##Í
##Ó
##ÓN
##ÕES
##Ö
##ÖR
##×
##Ú
##Ü
##ÜK
##ÜM
##ÜN
##ß
##ße
##ßen
##ßer
##ßig
##ßnahmen
##ßt
##à
##àg
##ài
##àl
##àn
##ào
##àr
##às
##àstic
##á
##áa
##áb
##ába
##ác
##áca
##áce
##áci
##ácia
##ácido
##ács
##áctica
##áculo
##ád
##áde
##ádi
##ádu
##áfico
##ág
##ága
##ági
##áh
##ái
##áil
##áin
##áis
##ája
##ák
##ákov
##ál
##ála
##álat
##áld
##áli
##ália
##ális
##áll
##álogo
##ált
##ám
##áma
##áme
##án
##ándose
##ánea
##áneo
##áng
##áni
##ánica
##ánico
##áno
##áns
##ántas
##ánu
##ány
##áo
##áp
##ápio
##ár
##ára
##árd
##áre
##ári
##ária
##árias
##ário
##ários
##árt
##ás
##ása
##ási
##ásico
##ásio
##ást
##ástica
##ástico
##ásticos
##át
##áte
##áti
##ática
##áticas
##ático
##áticos
##átil
##átor
##átu
##áu
##áv
##áva
##áveis
##ável
##ávia
##ávit
##áy
##áz
##áze
##ázquez
##áñez
##áček
##â
##âche
##âcher
##âd
##âi
##âl
##âle
##âm
##âmica
##âmico
##ân
##âna
##ânc
##ânci
##ância
##ând
##ându
##âne
##ânea
##âneo
##âng
##ânge
##âni
##ânia
##ânica
##ânico
##ânicos
##âns
##ânt
##ântul
##ânı
##âr
##âre
##âssis
##ât
##âtel
##âtir
##âtisserie
##âtre
##ây
##ã
##ães
##ãn
##ão
##ãos
##ãs
##ä
##äbi
##ächer
##äck
##äcker
##äd
##äda
##äde
##äden
##äder
##ädigung
##äe
##äen
##äge
##ägel
##ägen
##äger
##ägna
##ägt
##ägung
##äh
##ähi
##ähle
##ählen
##ähler
##ählt
##ährlich
##ährst
##ährt
##ährten
##äi
##äin
##äis
##äk
##äki
##äl
##älder
##älen
##äll
##älle
##ällen
##ällig
##ällt
##ält
##älte
##äm
##äme
##ämme
##ämpfer
##ämpft
##ämpfung
##ämt
##än
##änd
##ände
##änden
##änder
##ändig
##äne
##änen
##äng
##änge
##ängen
##änger
##ängig
##ängt
##äni
##änk
##änken
##änker
##änn
##änner
##äns
##änt
##äp
##äpp
##är
##ära
##ärd
##äre
##ären
##ärer
##ärg
##äri
##ärk
##ärken
##ärkt
##ärm
##ärme
##ärmen
##ärn
##ärt
##ärv
##äs
##äsch
##äsche
##äschen
##äsi
##ässig
##äst
##äste
##ästen
##äster
##ästi
##ät
##äta
##äte
##äten
##äter
##äti
##ätige
##ätt
##ätte
##ätten
##ätter
##ätze
##ätzen
##ätzt
##ätzung
##äu
##äude
##äufig
##äule
##äumt
##äure
##äva
##äß
##äße
##å
##åg
##ås
##æ
##æc
##æd
##ær
##æs
##æu
##ç
##ça
##çada
##çado
##çage
##çak
##çal
##çam
##çan
##çando
##çant
##çar
##ças
##çası
##çat
##çav
##çay
##çağı
##çe
##çek
##çekli
##çen
##çer
##çesi
##çete
##çeği
##çi
##çici
##çik
##çiler
##çileri
##çilik
##çim
##çin
##çinin
##çisi
##çka
##çlar
##çları
##çme
##çmiş
##ço
##çois
##çoit
##çon
##çons
##ços
##çou
##çu
##çuk
##çular
##çusu
##çy
##ção
##ções
##çü
##çı
##çılar
##çılara
##çıları
##çıların
##çılık
##çılığı
##çın
##çının
##çısı
##è
##èb
##èce
##èche
##èd
##ède
##èg
##ège
##èi
##èl
##èle
##èlement
##ème
##èmes
##èn
##ència
##ène
##ènes
##èques
##èr
##ère
##èrement
##èrent
##ères
##ès
##èse
##èt
##ète
##ètes
##ètre
##ève
##èvement
##èvre
##èz
##é
##éa
##éable
##éad
##éal
##éan
##éar
##éas
##ébe
##écifications
##éd
##édia
##édie
##édition
##ée
##éen
##ées
##éf
##éférence
##ég
##ége
##éger
##égi
##égia
##égrité
##éh
##ého
##éi
##éia
##éid
##éif
##éin
##éine
##éir
##éis
##éist
##éit
##éja
##ék
##éki
##él
##élan
##élet
##éli
##élia
##élica
##élie
##élien
##élt
##ély
##élyt
##élés
##ém
##éma
##ément
##émi
##émia
##émica
##émico
##émie
##émique
##ému
##émy
##én
##éna
##énager
##éndose
##éne
##énero
##éni
##énie
##ént
##énu
##ény
##éné
##éo
##éologie
##ép
##ér
##éra
##éral
##érale
##érance
##érant
##érapie
##érateur
##ératif
##ération
##éraux
##ére
##érer
##éreux
##érez
##érgi
##éri
##éria
##érica
##érico
##éricos
##érie
##érieur
##érieure
##ério
##érique
##éro
##érou
##ért
##éru
##éry
##éré
##érée
##érées
##érés
##és
##ése
##ési
##ést
##ét
##éta
##étaire
##étaires
##éter
##éti
##ética
##éticas
##ético
##éticos
##étique
##étiques
##étrica
##étt
##étude
##éty
##été
##év
##éve
##ével
##éves
##évi
##évé
##éz
##éza
##ézet
##éé
##ê
##êl
##êm
##ême
##ên
##ência
##ências
##êne
##ênia
##ênio
##êp
##êpes
##êr
##ês
##êt
##ête
##êu
##êz
##ë
##ëff
##ëindig
##ël
##ële
##ëls
##ëm
##ën
##ënd
##ëne
##ënt
##ënten
##ënz
##ër
##ëren
##ëri
##ëron
##ërs
##ës
##ët
##ëtt
##ëve
##ì
##ìa
##ìn
##ìs
##í
##ía
##íamos
##ían
##ías
##íbia
##íc
##íce
##íces
##ích
##íci
##ícia
##ície
##ício
##ícios
##íciu
##ícola
##ícula
##ículas
##ículo
##ículos
##íd
##ída
##ídas
##íde
##ídio
##ído
##ídos
##íe
##íes
##íf
##ífa
##ífic
##ífico
##íg
##ígenas
##ígeno
##íj
##ík
##íl
##íla
##ília
##ílica
##ílio
##ím
##íma
##íme
##ímetro
##ímetros
##ími
##ímid
##ímos
##ímpica
##ímpico
##ín
##ína
##ínas
##índo
##íne
##ínea
##íni
##íns
##ínte
##ínu
##ío
##íola
##íon
##íos
##íp
##ír
##íra
##íram
##íre
##ís
##ísima
##ísimas
##ísimo
##ísmo
##íssima
##íssimo
##ísta
##íste
##ística
##ísticas
##ístico
##ísticos
##ít
##íta
##íte
##íti
##ítica
##ítico
##íticos
##ítima
##ítimo
##íu
##ív
##íva
##íveis
##ível
##ívica
##ívico
##íz
##íza
##ízes
##ízo
##î
##îd
##îf
##îh
##îk
##îka
##îl
##îm
##în
##îna
##îne
##îner
##îné
##îr
##îs
##ît
##îte
##ître
##îye
##îz
##ï
##ïa
##ïc
##ïcité
##ïd
##ïda
##ïde
##ïdes
##ïen
##ïm
##ïn
##ïne
##ïnes
##ïo
##ïque
##ïs
##ïse
##ïsme
##ït
##ð
##ða
##ðar
##ði
##ðr
##ður
##ñ
##ña
##ñada
##ñado
##ñados
##ñal
##ñales
##ñan
##ñando
##ñar
##ñas
##ñe
##ñedo
##ñen
##ñer
##ñera
##ñez
##ñi
##ño
##ñol
##ños
##ñu
##ñó
##ñón
##ò
##òl
##òn
##òr
##òs
##òt
##ó
##óa
##ób
##óc
##ócenia
##ócio
##ócrata
##ócratas
##ód
##óda
##ódica
##ódzkiego
##óf
##óg
##óga
##ógica
##ógicas
##ógico
##ógra
##ói
##óide
##óis
##ój
##ók
##ól
##óla
##óleo
##óli
##ólia
##ólica
##ólicas
##ólico
##ólicos
##ólny
##ólogo
##ólogos
##óm
##óma
##ómetro
##ómica
##ón
##óna
##óne
##ónia
##ónica
##ónico
##ónimo
##ónimos
##óns
##óp
##ópa
##ópolis
##óquio
##ór
##óra
##órach
##órcio
##óre
##ória
##órias
##órica
##óricas
##órico
##órie
##ório
##órios
##órka
##órki
##óru
##óry
##órą
##ós
##ósito
##ósta
##ósł
##ót
##óta
##ótica
##ótico
##óticos
##ótka
##óveis
##ów
##ówce
##ówek
##ówienie
##ówione
##ówiono
##ówka
##ówki
##ówką
##ówkę
##ównanie
##ównać
##óxico
##óxido
##óz
##ózek
##ół
##ółki
##óż
##óżne
##ô
##ôd
##ôf
##ôl
##ôle
##ôm
##ôme
##ômes
##ômé
##ôn
##ône
##ônia
##ônica
##ônicas
##ônico
##ônimo
##ônimos
##ôr
##ôs
##ôt
##õ
##õe
##õem
##ões
##ö
##öbel
##öcek
##öcher
##öchst
##öcke
##öd
##öde
##öden
##öder
##ödie
##öf
##öffel
##öfte
##ög
##ögen
##öglich
##öhne
##öhnt
##öi
##ök
##öka
##öke
##öken
##öker
##ökk
##ökt
##öku
##öl
##öld
##öle
##ölge
##ölgy
##öli
##öll
##ölle
##ölni
##ölt
##ölte
##ölu
##öm
##ömb
##ömer
##ömlek
##ömmer
##ön
##öna
##önd
##öne
##önen
##öner
##öng
##önn
##önt
##öntgen
##önü
##önül
##öp
##öpfe
##öpfung
##öportaj
##ör
##öra
##örd
##örde
##öre
##ören
##örer
##örf
##örg
##öri
##örig
##örigen
##örler
##örleri
##örn
##örs
##örse
##örst
##ört
##örung
##örü
##ös
##ösa
##öse
##ösen
##öss
##öst
##östen
##österreich
##öt
##öta
##öte
##öten
##öter
##ötet
##öts
##ött
##ötte
##ötter
##öv
##öva
##övde
##över
##öy
##öyle
##öz
##ößt
##öö
##öğretim
##÷
##ø
##ød
##øj
##øl
##øm
##øn
##ønder
##ør
##øy
##øya
##ù
##ùn
##ú
##úa
##úan
##úbal
##úc
##úca
##úch
##úcha
##úcho
##úci
##úd
##údio
##úe
##úen
##úfa
##új
##úl
##úli
##úm
##úma
##ún
##úna
##únas
##úncia
##úo
##úp
##úr
##úre
##úria
##ús
##úsculas
##úst
##ústico
##út
##úti
##útil
##úva
##û
##ûd
##ûk
##ûl
##ûle
##ûm
##ûn
##ûne
##ûr
##ûra
##ûre
##ûs
##ût
##ûte
##ü
##üb
##üben
##über
##übt
##üche
##ücher
##üchte
##ück
##ücke
##ücken
##ückt
##ücü
##üd
##üdi
##üdischen
##üe
##üel
##ües
##üf
##üfe
##üfen
##üfer
##üfte
##üge
##ügel
##ügen
##üger
##ügt
##ühe
##ühel
##ühen
##ühl
##ühle
##ühlen
##ühler
##ühlt
##ühn
##ühr
##ühren
##ührt
##ük
##üket
##ükk
##ül
##üldü
##üle
##ülen
##üler
##ülle
##üllt
##üllung
##ülm
##ülmesi
##ülmüş
##ült
##ülye
##ülü
##ülür
##üm
##üman
##üme
##ümer
##ümesi
##ümi
##ümü
##ün
##ünd
##ünde
##ünden
##ünder
##ündet
##ündigen
##ündigt
##ündnis
##ündung
##üne
##ünerek
##ünger
##üni
##ünk
##ünktlich
##ünnet
##ünni
##ünstliche
##üntü
##ünü
##ünün
##ünür
##üp
##ür
##ürcü
##ürd
##üre
##ürek
##üren
##üresi
##üri
##ürk
##ürme
##ürmek
##üro
##ürt
##ürzen
##ürzt
##ürü
##ürük
##ürün
##ürüzsüz
##üs
##üsi
##üss
##üsse
##üssen
##üst
##üste
##üstet
##üstrasyon
##üstri
##üstü
##üsü
##üt
##üte
##üter
##ütt
##ütze
##ützen
##ützer
##ützt
##üy
##üyle
##üyor
##üyü
##üz
##üze
##üü
##üğü
##üş
##üşünme
##ý
##þ
##ÿ
##Ā
##ā
##āda
##āh
##āli
##ām
##āma
##ān
##āna
##āp
##āra
##ās
##āt
##ă
##ăn
##Ą
##ą
##ąc
##ąca
##ące
##ącego
##ącej
##ąco
##ący
##ących
##ącym
##ączki
##ącą
##ąd
##ądz
##ąg
##ągnie
##ągnięcie
##ągnął
##ągu
##ąski
##ątek
##ątki
##ątku
##ązane
##ązania
##ązanie
##ązowy
##ązuje
##ąć
##ął
##ąż
##ąża
##ążenia
##ążenie
##ążą
##ążę
##ć
##ća
##ċ
##Č
##č
##ča
##če
##ček
##či
##čić
##čka
##ču
##čín
##đ
##ē
##ēr
##ēs
##ĕ
##ė
##ėda
##Ę
##ę
##ęce
##ęcej
##ęci
##ęcia
##ęcie
##ęciem
##ęciu
##ęcić
##ęd
##ędza
##ędzia
##ędzy
##ęg
##ęgi
##ęk
##ęku
##ęli
##ęp
##ępne
##ępny
##ęs
##ęski
##ęsta
##ęste
##ęta
##ęte
##ętnie
##ęty
##ętych
##ęć
##ęła
##ęło
##ęły
##ężenia
##ężenie
##ężne
##ě
##Ğ
##ğ
##ğa
##ğam
##ğan
##ğd
##ğe
##ğeni
##ğer
##ği
##ğim
##ğimiz
##ğin
##ğinde
##ğine
##ğini
##ğiniz
##ğişken
##ğla
##ğlar
##ğlu
##ğlı
##ğlığı
##ğma
##ğne
##ğrul
##ğu
##ğumuz
##ğun
##ğunda
##ğunu
##ğunun
##ğü
##ğünde
##ğünü
##ğı
##ğım
##ğımız
##ğın
##ğına
##ğında
##ğından
##ğını
##ğının
##ğınız
##ğır
##ġ
##ġin
##Ī
##ī
##īd
##īm
##īna
##īs
##īt
##ītā
##ĭ
##İ
##İA
##İK
##İL
##İM
##İN
##İR
##İT
##İYE
##İZ
##ı
##ıa
##ıb
##ıcı
##ıda
##ıdır
##ıf
##ık
##ıl
##ıla
##ılabilir
##ılacak
##ılan
##ılar
##ılarak
##ıları
##ıların
##ılavuzu
##ıldı
##ıldığı
##ıldığını
##ılma
##ılmak
##ılmaktadır
##ılmalıdır
##ılması
##ılmasına
##ılmasını
##ılmaya
##ılmaz
##ılmış
##ılmıştır
##ılı
##ılım
##ılıp
##ılır
##ılıyor
##ım
##ıma
##ımda
##ımlı
##ımı
##ımız
##ımızın
##ın
##ına
##ınan
##ınar
##ınca
##ıncı
##ında
##ından
##ınma
##ınması
##ınmış
##ıntı
##ını
##ının
##ınır
##ınız
##ınızı
##ıp
##ır
##ıra
##ıram
##ıran
##ırdı
##ırk
##ırlar
##ırma
##ırnak
##ırtına
##ırı
##ırıcı
##ırılan
##ırıldı
##ırılması
##ırım
##ırın
##ısı
##ıt
##ıta
##ıtma
##ıya
##ıyla
##ıymetli
##ıyor
##ıyorum
##ıyoruz
##ıyı
##ız
##ıza
##ızda
##ızı
##ızın
##ıç
##ığa
##ığı
##ığın
##ığını
##ış
##ışan
##ışma
##ışmanı
##ışması
##ıştı
##ıştır
##ıştırma
##ışı
##ışıklı
##ışığı
##ľa
##Ł
##ł
##ła
##łabe
##łac
##łaca
##łach
##łaci
##łacu
##ład
##łada
##ładka
##ładki
##ładnie
##ładu
##łady
##ładzie
##ładów
##łam
##łami
##łana
##łane
##łania
##łanie
##łaszcza
##łat
##łata
##łatka
##łatki
##łatna
##łatne
##łaty
##łatę
##ław
##ława
##łał
##łce
##łe
##łecznej
##łego
##łej
##łek
##łem
##łka
##łki
##łko
##łkowita
##łkowity
##łku
##łna
##łni
##łnia
##łnienia
##łnierz
##łnić
##łny
##ło
##łodu
##łoga
##łoki
##łon
##łona
##łonie
##łony
##łoski
##łowa
##łowe
##łowie
##łowy
##łowych
##łowym
##łową
##łości
##łość
##łożenia
##łożenie
##łożeniu
##łożona
##łożone
##łożony
##łożyć
##łożył
##łu
##łuchania
##łudniowej
##ługa
##ługi
##ługą
##łupa
##łużb
##łużenia
##łużenie
##łużyć
##ły
##łych
##łychać
##łym
##łyn
##łynie
##łynąć
##łyszał
##łyszeć
##ływ
##łów
##łóż
##łą
##łącz
##łącza
##łączając
##łączenia
##łączenie
##łączeniu
##łącznie
##łącznik
##łączona
##łączone
##łączony
##łączyć
##łączył
##łę
##łżeństwo
##ń
##ńca
##ńce
##ńcem
##ńcu
##ńczone
##ńczy
##ńczyć
##ńczył
##ńczyła
##ńczą
##ńców
##ńska
##ński
##ńskich
##ńskie
##ńskiego
##ńskiej
##ńskim
##ńską
##ństwa
##ństwo
##ň
##ŋ
##Ō
##ō
##ŏ
##ő
##œ
##œur
##ř
##ře
##řem
##ři
##řich
##řák
##ří
##Ś
##ś
##ści
##ścia
##ście
##ścig
##ściu
##ścią
##ścić
##ścił
##śl
##śle
##śli
##śliwe
##ślił
##ślnie
##śmie
##śmy
##śne
##śni
##śnia
##śnie
##śnienia
##śnienie
##śnik
##śniki
##śników
##śny
##śnych
##środku
##śród
##świadczenie
##świadczeniu
##świetlenie
##ść
##Ş
##ş
##şa
##şabilir
##şacak
##şad
##şah
##şak
##şan
##şana
##şani
##şar
##şarak
##şat
##şağı
##şe
##şebilir
##şehir
##şek
##şeli
##şem
##şeme
##şen
##şet
##şey
##şi
##şid
##şif
##şik
##şim
##şin
##şine
##şini
##şir
##şire
##şirme
##şit
##şiya
##şiyor
##şk
##şka
##şke
##şkek
##şkin
##şlar
##şları
##şli
##şma
##şmak
##şman
##şmanın
##şması
##şmasına
##şmasını
##şmaya
##şme
##şmek
##şmiş
##şmış
##şru
##şt
##şta
##şte
##ştere
##şti
##ştin
##ştir
##ştirdi
##ştiren
##ştirerek
##ştirici
##ştirilmiş
##ştirir
##ştırma
##şu
##şul
##şulan
##şun
##şunu
##şur
##şusu
##şuyor
##şy
##şî
##şı
##şıb
##şık
##şılabilir
##şılması
##şım
##şın
##şır
##şırı
##š
##ša
##še
##ši
##šić
##ška
##ški
##šov
##št
##šte
##šu
##šč
##ū
##ūd
##ūk
##ūka
##ūs
##ūt
##ŭ
##ů
##ŵr
##ŷ
##ź
##źby
##źle
##źne
##źnej
##źni
##źnie
##źniej
##źnik
##źny
##Ż
##ż
##ża
##żają
##żania
##żanie
##żar
##żaw
##żać
##żał
##żało
##że
##żej
##żek
##żel
##żem
##żen
##żenia
##żenie
##żeniem
##żeniu
##żer
##żera
##żet
##żew
##żeń
##żi
##żin
##żka
##żki
##żką
##żkę
##żliwi
##żliwia
##żliwić
##żna
##żne
##żnej
##żni
##żnie
##żniejszy
##żniejszym
##żnienia
##żnik
##żnika
##żnione
##żności
##żność
##żny
##żnych
##żnym
##żną
##żona
##żone
##żonej
##żono
##żony
##żonych
##żonym
##żoną
##żowe
##żowy
##żowych
##ższa
##ższe
##ższego
##ższej
##ższy
##ższych
##ższym
##ższą
##żu
##żur
##ży
##życia
##życie
##życzka
##życzkę
##żyj
##żyli
##żyser
##żywa
##żywane
##żywanie
##żywcze
##żywczych
##żyć
##żył
##żyła
##żą
##żące
##żący
##żądane
##żę
##ž
##ža
##že
##ženi
##žne
##ưa
##ương
##ǎ
##ǐ
##ǒ
##ǔ
##ǫ
##ș
##șesc
##ști
##ț
##ța
##ɑ
##ɔ
##ə
##ɛ
##ɪ
##ʃ
##ʊ
##ʒ
##ʻa
##ʻi
##ʾ
##ʿ
##ˈ
##ˊ
##ˋ
##ː
##˚
##́
##̃
##̄
##̍
##͡
##ΑΣ
##Ε
##Ζ
##Ι
##Λ
##ΥΣ
##Ω
##ά
##έ
##ή
##ί
##ίδας
##α
##αλ
##β
##γ
##γό
##δ
##δεια
##ε
##εν
##ερ
##η
##θ
##θαν
##θε
##θη
##θο
##ι
##ικ
##ις
##ισμός
##κ
##κα
##κον
##κος
##λ
##λα
##λε
##λι
##λικό
##μ
##μή
##μα
##ν
##ξ
##ξί
##ο
##ολ
##ον
##ος
##π
##πτο
##ρ
##ρί
##ρα
##ρας
##ρι
##ριο
##ρος
##ρχία
##ρω
##ς
##σ
##σία
##σι
##τ
##τα
##τοι
##τος
##υ
##φ
##φών
##χ
##ω
##ωμα
##ων
##ό
##ύ
##ύς
##ώ
##А
##АД
##АЗ
##АИ
##АК
##АЛ
##АН
##АО
##АП
##АР
##АС
##АТ
##АУ
##АЭС
##Б
##БА
##БЕ
##БИ
##БК
##БО
##БС
##БТ
##В
##ВА
##ВД
##ВИ
##ВК
##ВН
##ВО
##ВП
##ВР
##ВС
##Г
##ГА
##ГИ
##ГО
##ГС
##ГУ
##Гц
##Д
##ДА
##ДВ
##ДЕ
##ДИ
##ДК
##ДП
##ДР
##ДС
##ДУ
##Е
##ЕД
##ЕК
##ЕЛ
##ЕМ
##ЕН
##ЕР
##ЕС
##ЕТ
##Ж
##ЖД
##З
##ЗА
##ЗО
##ЗУ
##И
##ИА
##ИИ
##ИК
##ИЛ
##ИМ
##ИН
##ИО
##ИП
##ИР
##ИС
##ИЯ
##Й
##К
##КА
##КГ
##КИ
##КО
##КП
##КС
##Л
##ЛА
##ЛИ
##ЛО
##ЛС
##М
##МА
##МГ
##МИ
##МК
##МО
##МП
##МР
##МС
##МТ
##МУ
##МФ
##Н
##НА
##НБ
##НД
##НЕ
##НИ
##НК
##НО
##НП
##НР
##НС
##НТ
##НУ
##О
##ОЗ
##ОК
##ОМ
##ОН
##ОО
##ОП
##ОР
##ОС
##ОТ
##ОУ
##П
##ПК
##ПЛ
##ПО
##ПП
##ПС
##ПУ
##Р
##РА
##РГ
##РД
##РЕС
##РИ
##РК
##РМ
##РН
##РО
##РС
##РТ
##РУ
##С
##СВ
##СК
##СО
##СР
##СС
##СТ
##Т
##ТА
##ТВ
##ТГ
##ТЕ
##ТЗ
##ТИ
##ТК
##ТО
##ТС
##ТУ
##ТЭ
##У
##УД
##УЗ
##УП
##УС
##Ф
##ФА
##ФК
##ФО
##ФУ
##Х
##ХД
##ХЛ
##ХУ
##Ц
##Ч
##Ш
##Щ
##Ъ
##Ы
##Ь
##Э
##ЭК
##ЭС
##Ю
##Я
##а
##аа
##аад
##аар
##аб
##аба
##аби
##абрика
##абы
##ав
##ава
##ават
##авая
##аве
##ави
##авка
##авки
##авляется
##авна
##авно
##аво
##авт
##аву
##авы
##авых
##аг
##ага
##аган
##аги
##агировать
##агирует
##агностика
##аго
##агон
##агони
##агу
##ад
##ада
##адам
##адан
##адат
##адах
##аде
##адзе
##ади
##адка
##адки
##адку
##адок
##аду
##ады
##ае
##аев
##аем
##аемых
##ает
##ается
##аж
##ажа
##аже
##ажи
##ажу
##аз
##аза
##азан
##ази
##азы
##аи
##аил
##ай
##айв
##айл
##айн
##айского
##айт
##айте
##ак
##ака
##акат
##аки
##акка
##акле
##акли
##ако
##аков
##акон
##акона
##акт
##акта
##актор
##акты
##аку
##ал
##ала
##алась
##алат
##але
##ален
##али
##ализации
##ализация
##ализм
##алии
##ались
##алити
##алка
##аллы
##ало
##алов
##алог
##алом
##ался
##алт
##алу
##алы
##аль
##альна
##альная
##ально
##ального
##альное
##альной
##альном
##альному
##альную
##альны
##альные
##альный
##альным
##альных
##аля
##ам
##ама
##амал
##аман
##аме
##амен
##амент
##аметр
##ами
##амин
##амо
##амон
##амони
##аму
##амы
##ан
##ана
##анага
##анай
##анат
##анг
##анган
##анги
##анд
##анда
##анды
##ане
##анец
##ани
##ание
##ании
##аний
##аните
##анию
##ания
##анка
##анки
##анку
##анне
##анно
##анные
##анный
##анных
##ано
##анов
##анова
##анови
##анс
##анска
##ански
##анско
##ант
##анта
##анти
##анты
##ану
##анцы
##аны
##ань
##ао
##ап
##апазон
##ар
##ара
##аран
##арат
##арах
##арга
##ард
##арда
##арди
##арды
##аре
##арен
##арея
##ари
##арин
##ария
##арк
##арка
##арна
##арни
##арно
##арного
##арные
##арный
##арных
##аро
##аров
##арова
##арт
##ару
##арх
##арха
##арч
##ары
##арь
##ас
##аса
##асан
##аси
##аска
##асна
##асни
##асно
##асную
##асны
##асные
[...]
